<unk>	0
<s>	0
</s>	0
<pad>	0
[UNK]	0
、	-1.99724
。	-2.21491
の	-4.33126
?	-4.37182
うん	-4.43066
で	-4.53883
ね	-4.73174
が	-4.88021
は	-4.9273
ー	-4.99837
って	-5.04827
なんか	-5.05384
に	-5.09018
あ	-5.14342
でも	-5.18391
も	-5.23794
と	-5.33033
とか	-5.3589
もう	-5.42462
あの	-5.42538
から	-5.44013
だから	-5.47683
か	-5.56237
を	-5.57435
その	-5.5879
そう	-5.61614
さ	-5.64789
1	-5.71828
よ	-5.79433
な	-5.88692
何か	-5.91435
し	-6.00521
何	-6.08595
ちょっと	-6.10902
い	-6.10975
うーん	-6.11626
あー	-6.17771
え	-6.18796
2	-6.1898
すごい	-6.2049
こう	-6.20708
て	-6.20785
お	-6.21228
あれ	-6.21691
私	-6.2308
ねえ	-6.23801
ねー	-6.25296
た	-6.28055
これ	-6.28219
あのー	-6.28569
ま	-6.29799
ん	-6.34079
さー	-6.39371
それ	-6.42805
だって	-6.43336
人	-6.47262
F	-6.4841
る	-6.48471
して	-6.49303
今	-6.49861
ない	-6.50269
じゃない	-6.51673
いや	-6.52634
まあ	-6.53768
く	-6.60514
ら	-6.6156
それは	-6.62405
やっぱり	-6.63954
でしょう	-6.66734
だ	-6.67273
り	-6.69449
いい	-6.69872
けど	-6.7038
あっ	-6.7038
や	-6.7086
わ	-6.70964
ふーん	-6.71155
結構	-6.73845
それで	-6.74557
よね	-6.75089
かな	-6.75315
じゃん	-6.79853
っていう	-6.79866
ああ	-6.80235
そういう	-6.85188
そんな	-6.86775
じゃ	-6.87092
つ	-6.89281
ある	-6.89715
3	-6.91196
んだけど	-6.9212
だけ	-6.93355
じゃあ	-6.9593
さん	-6.96073
する	-6.96703
ほんと	-6.97877
違う	-6.98285
この	-7.00454
みんな	-7.02418
はい	-7.03117
全然	-7.03452
たぶん	-7.04454
ほんとに	-7.05836
した	-7.07013
年	-7.0704
き	-7.11569
まだ	-7.1185
っていうか	-7.1337
んだ	-7.14312
さあ	-7.14487
っ	-7.16182
あと	-7.1745
こ	-7.17676
そ	-7.1996
また	-7.20034
・	-7.20149
日	-7.21214
みたいな	-7.23947
でしょ	-7.24765
だった	-7.24969
4	-7.26703
あんまり	-7.27848
回	-7.28248
す	-7.28375
なかった	-7.28679
ス	-7.29018
う	-7.30059
なの	-7.30654
だよ	-7.30856
:	-7.31049
こと	-7.324
大	-7.32642
んだって	-7.3316
えー	-7.33906
よく	-7.34329
A	-7.35553
ちゃん	-7.35798
いる	-7.36186
先生	-7.36222
まで	-7.36663
別に	-7.3707
もん	-7.37837
だけど	-7.38521
なんで	-7.38758
とか言って	-7.39754
やって	-7.40718
分	-7.4122
ほら	-7.4156
ぐらい	-7.42648
んで	-7.43184
です	-7.44259
った	-7.46396
のね	-7.4735
ええ	-7.47798
前	-7.48184
だよね	-7.48281
全部	-7.48389
なんて	-7.48751
わかんない	-7.49121
えっ	-7.49449
本	-7.49783
私も	-7.5023
だったら	-7.51103
め	-7.51633
み	-7.51895
私は	-7.52229
B	-7.52354
んだよ	-7.52367
あたし	-7.52619
がある	-7.53693
X	-7.53772
すごく	-7.53778
わけ	-7.54633
ば	-7.55524
と思って	-7.55675
ちゃんと	-7.55726
時間	-7.55842
行く	-7.56131
そうそう	-7.56853
M	-7.56949
してる	-7.57083
子	-7.57747
んだよね	-7.58066
ア	-7.58329
そうなんだ	-7.58577
たら	-7.58747
なー	-7.59787
絶対	-7.60106
出	-7.61432
れ	-7.61591
月	-7.62349
それが	-7.62398
やっぱ	-7.62689
それを	-7.62751
行って	-7.6293
やつ	-7.63791
なん	-7.6564
いて	-7.66841
とこ	-7.6847
ちゃう	-7.68964
わかる	-7.69989
5	-7.70019
そっか	-7.70046
一	-7.70066
しか	-7.70699
見	-7.71099
C	-7.71178
ですね	-7.71272
いた	-7.71873
と思う	-7.7233
」	-7.72344
いろいろ	-7.72519
中	-7.73369
イ	-7.73937
ク	-7.74437
け	-7.75482
そしたら	-7.75544
みたい	-7.75546
もの	-7.76273
よかった	-7.76883
これは	-7.77024
そうなの	-7.7709
どう	-7.77184
大丈夫	-7.77428
んですよ	-7.7798
っていうのは	-7.78308
ル	-7.78499
とき	-7.78597
話	-7.79077
のは	-7.79304
あった	-7.79474
円	-7.79499
D	-7.79597
そうそうそう	-7.79771
手	-7.80133
方	-7.80418
かった	-7.80756
わたし	-7.81538
ときに	-7.81746
って言って	-7.81965
んの	-7.81983
いいよ	-7.82239
そんなに	-7.82342
だめ	-7.83869
できる	-7.83966
せ	-7.83981
人が	-7.8405
ですか	-7.84551
そうだね	-7.85008
最近	-7.85251
やった	-7.85613
ような	-7.85685
6	-7.85801
んですけど	-7.85898
ここ	-7.8627
んですか	-7.87073
には	-7.87166
っと	-7.87457
ラ	-7.8786
10	-7.88014
持って	-7.88065
俺	-7.8874
ド	-7.88911
会	-7.89924
だね	-7.90059
おいしい	-7.90096
リ	-7.901
じゃなくて	-7.90139
どこ	-7.90687
ト	-7.90733
なんだけど	-7.914
なら	-7.91584
見て	-7.91813
あれは	-7.9186
こんな	-7.92201
行った	-7.92252
でー	-7.92294
はね	-7.92452
】	-7.92762
【	-7.92762
一応	-7.92775
んじゃない	-7.93001
へー	-7.93026
シ	-7.93884
人で	-7.94084
大学	-7.94343
7	-7.945
ろ	-7.95361
チ	-7.95395
とかって	-7.95486
私が	-7.95491
9	-7.95784
という	-7.95947
になる	-7.96131
やってる	-7.96255
うち	-7.96436
感じ	-7.96982
なんだ	-7.96998
かわいい	-7.97038
おもしろい	-7.97078
やん	-7.97116
いっぱい	-7.97949
ただ	-7.97978
もっと	-7.98005
の方が	-7.98573
ずっと	-7.98845
かなー	-7.98867
そうか	-7.98902
ど	-7.99061
今日	-7.99348
すっごい	-7.99579
へえー	-7.9997
言って	-8.00222
E	-8.00418
があって	-8.00758
レ	-8.00774
日本	-8.00777
上	-8.00781
結局	-8.00791
うちの	-8.00875
知らない	-8.01017
こういう	-8.01365
だと	-8.01449
ご	-8.01538
やる	-8.02561
名古屋	-8.02736
「	-8.03053
ン	-8.0313
すぐ	-8.03209
自分の	-8.03247
好き	-8.03486
はー	-8.0408
大変	-8.04523
になって	-8.04704
本当	-8.04983
気	-8.05199
ジ	-8.05379
自分で	-8.05638
ですよね	-8.06173
ってこと	-8.06449
よー	-8.06557
食べ	-8.07495
そうですね	-8.08018
そういうの	-8.0837
いつも	-8.08764
なくて	-8.08985
なあ	-8.09185
できない	-8.09199
よう	-8.10305
そうだよね	-8.10392
ですよ	-8.10567
ないから	-8.10813
へ	-8.11164
れる	-8.11237
仕事	-8.11326
8	-8.11421
生	-8.11494
ってる	-8.11553
きた	-8.11728
一番	-8.11764
下	-8.11839
らしい	-8.11982
ところ	-8.12172
G	-8.12194
言う	-8.13103
したら	-8.13698
見た	-8.1377
のかな	-8.13887
来て	-8.13988
って感じ	-8.15892
でもね	-8.15977
山	-8.16106
車	-8.164
じ	-8.16835
万	-8.17358
かもしれない	-8.17851
名	-8.18192
からね	-8.18539
だし	-8.18605
きっと	-8.18957
ううん	-8.1955
ち	-8.19878
コ	-8.20111
時	-8.20321
東京	-8.20439
高い	-8.20463
方が	-8.20889
多い	-8.21322
個	-8.21352
家	-8.2142
タ	-8.21603
電話	-8.2185
学生	-8.22112
聞いて	-8.22967
夜	-8.23151
たい	-8.23558
一緒に	-8.23632
のよ	-8.23662
もんね	-8.2377
人は	-8.24358
んです	-8.25047
れば	-8.25124
うんうん	-8.25359
英語	-8.25367
朝	-8.25642
物	-8.25774
確かに	-8.25858
こうやって	-8.2612
顔	-8.26176
メール	-8.27143
いろんな	-8.2746
よねー	-8.28043
む	-8.28655
くる	-8.2871
金	-8.29025
の人	-8.2904
カ	-8.29053
のが	-8.29155
I	-8.29232
学校	-8.29328
食べて	-8.2951
こっち	-8.29829
来る	-8.30009
ときは	-8.30563
そうそうそうそう	-8.31054
び	-8.31122
なんかね	-8.31358
いない	-8.31716
嫌	-8.31728
ひ	-8.32182
フ	-8.32195
長	-8.32258
でね	-8.32646
例えば	-8.3272
のに	-8.32755
そうですか	-8.32761
なる	-8.32831
来た	-8.32925
J	-8.33113
同じ	-8.33449
着	-8.3358
っていうの	-8.336
なんだっけ	-8.33717
それも	-8.33912
怖い	-8.34061
前に	-8.3444
ロ	-8.3451
の方	-8.34775
水	-8.34902
知ってる	-8.34954
より	-8.34994
H	-8.35107
というか	-8.35181
さんが	-8.35419
難しい	-8.35759
頭	-8.35918
ふ	-8.36145
授業	-8.36147
普通の	-8.36543
無理	-8.36663
るから	-8.37261
来	-8.37266
にも	-8.37796
国	-8.37809
どういう	-8.37815
しない	-8.38116
それから	-8.38324
代	-8.38325
足	-8.38371
入れ	-8.38377
ます	-8.38508
出て	-8.39004
そこ	-8.39012
とかさ	-8.39015
本当に	-8.39333
早く	-8.39799
通	-8.40036
マ	-8.4014
普通に	-8.4029
とか思って	-8.40382
私の	-8.40525
普通	-8.40574
けどね	-8.40814
日本語	-8.41097
今度	-8.41364
安い	-8.41538
きて	-8.41814
歌	-8.41816
ちゃ	-8.4186
何で	-8.41865
ッ	-8.41967
あって	-8.42043
目	-8.42096
いつ	-8.42567
そいで	-8.42662
学	-8.42713
そういうこと	-8.42825
いいじゃん	-8.42891
そのー	-8.4297
子ども	-8.43199
バイト	-8.43507
んですよね	-8.43769
30	-8.43889
口	-8.43929
お金	-8.44177
O	-8.44357
しかも	-8.44907
もらって	-8.44939
K	-8.45244
っていうのが	-8.45267
大体	-8.45327
あの人	-8.45328
キ	-8.45355
ほかの	-8.45445
になった	-8.45545
ム	-8.45653
るの	-8.46016
昨日	-8.46352
やってた	-8.46407
そんなん	-8.46526
ました	-8.46532
親	-8.46781
ばっかり	-8.47585
食べる	-8.47824
わからない	-8.48095
あそこ	-8.48476
あんた	-8.48494
人の	-8.48542
書いて	-8.48708
とかも	-8.48775
だろう	-8.48804
入って	-8.49405
写真	-8.4957
食べた	-8.49584
聞いた	-8.49745
そんなこと	-8.50363
がね	-8.50563
んだろう	-8.50702
L	-8.50761
いって	-8.50783
ぶ	-8.50885
外	-8.50996
えーと	-8.51023
たの	-8.51569
ぼ	-8.51749
ほ	-8.51821
いいの	-8.52022
買って	-8.52028
まず	-8.52055
ほんで	-8.5206
男	-8.5208
わからん	-8.52187
だったの	-8.52579
体	-8.52985
お父さん	-8.53017
先生が	-8.53024
ちゃった	-8.53617
だれ	-8.53646
語	-8.53934
なかなか	-8.5412
として	-8.5416
がない	-8.54272
、3	-8.54296
のこと	-8.54475
しい	-8.54571
なって	-8.54599
ミ	-8.54826
出る	-8.54831
って言ったら	-8.54856
出して	-8.54982
いく	-8.55058
そうだ	-8.55247
かなあ	-8.55279
何が	-8.55351
かなり	-8.55451
いやー	-8.55494
超	-8.56076
%	-8.56076
20	-8.5632
ウ	-8.5657
てる	-8.56621
ごめん	-8.56696
っちゃう	-8.56703
ないと	-8.56876
食	-8.56912
どうしよう	-8.56916
こないだ	-8.5696
もちろん	-8.57072
くらい	-8.57105
なきゃ	-8.57148
歳	-8.57323
リー	-8.57381
ここに	-8.57664
んでしょう	-8.57923
ください	-8.58154
なくって	-8.5819
なく	-8.58237
名前	-8.58337
もうちょっと	-8.58379
からー	-8.58565
べ	-8.58642
と思った	-8.58679
君	-8.58858
高	-8.58899
言ってた	-8.58967
って言われて	-8.58976
行きたい	-8.59119
んー	-8.59269
お前	-8.59346
の話	-8.59391
だからね	-8.59498
問題	-8.59747
合	-8.59753
ことない	-8.59883
言った	-8.60082
んだけどー	-8.60159
だもん	-8.60206
くて	-8.60403
そこで	-8.60799
言葉	-8.61322
じゃんね	-8.61591
ないよ	-8.61836
色	-8.62169
ツ	-8.6217
味	-8.62709
とにかく	-8.62741
駅	-8.63152
だけで	-8.63223
ったら	-8.63277
白	-8.63493
パン	-8.63631
悪い	-8.6366
ると	-8.63743
どっか	-8.63752
わかった	-8.63769
ほとんど	-8.6381
やろ	-8.63921
くれる	-8.64432
枚	-8.64749
か月	-8.64788
れない	-8.64864
あなた	-8.65002
ないの	-8.65035
ちゃって	-8.65046
高校	-8.65105
何とか	-8.65108
んだから	-8.65242
アメリカ	-8.65274
会社	-8.65815
んじゃないの	-8.65878
買った	-8.66125
のか	-8.6614
ブ	-8.66257
ナ	-8.66463
れた	-8.66561
先生の	-8.66568
初めて	-8.66636
のやつ	-8.66662
えっと	-8.66721
おかしい	-8.6709
にして	-8.6736
今は	-8.67416
的に	-8.67427
度	-8.67434
サ	-8.67463
れて	-8.67527
映画	-8.67542
とりあえず	-8.67636
後	-8.67667
▁	-8.68196
クラス	-8.68211
じゃないの	-8.68405
取り	-8.68517
らない	-8.68644
系	-8.68721
しー	-8.6885
この前	-8.68952
何を	-8.69252
ずーっと	-8.69343
ないけど	-8.69471
作って	-8.69569
P	-8.6989
使う	-8.70077
楽	-8.70127
っていう感じ	-8.70226
でさ	-8.70354
0	-8.7038
いくら	-8.70431
com	-8.70463
って言う	-8.70493
道	-8.70556
空	-8.70686
ことは	-8.70966
場	-8.70967
ガ	-8.71019
関係	-8.71167
なきゃいけない	-8.71306
お母さん	-8.71368
げ	-8.71519
うんうんうん	-8.71639
しよう	-8.7206
たくさん	-8.72116
さんの	-8.72226
うちに	-8.72263
ーい	-8.72283
つけ	-8.72486
どんな	-8.72616
エ	-8.72625
入れて	-8.72713
入	-8.72767
考え	-8.72841
たから	-8.73007
に行って	-8.73342
がいい	-8.7335
変な	-8.73417
では	-8.73761
ちょうど	-8.73918
新	-8.7392
旅行	-8.7398
あとは	-8.74002
昔	-8.74051
書	-8.74219
パ	-8.74376
そこに	-8.74383
方がいい	-8.74563
すいません	-8.74611
だったから	-8.74691
ピ	-8.74836
地	-8.74868
最初	-8.75108
寝	-8.75439
に行く	-8.7546
あるの	-8.75482
帰って	-8.75779
そうだよ	-8.75811
の人が	-8.75834
自分	-8.76025
間	-8.76102
そりゃ	-8.76136
もし	-8.76237
12	-8.76276
S	-8.7633
言い	-8.76344
かー	-8.76518
からさ	-8.76587
気が	-8.76706
どうして	-8.7677
があった	-8.77235
勉強	-8.77397
小	-8.77434
かも	-8.77541
なんていうの	-8.77565
ように	-8.77585
入ってる	-8.77886
されて	-8.77921
日本人	-8.77945
行	-8.7798
町	-8.78199
あんな	-8.78229
11	-8.78256
何かね	-8.78276
めて	-8.78418
そっかー	-8.78474
一緒	-8.78561
バ	-8.78637
出す	-8.78674
ず	-8.78777
毎日	-8.78838
者	-8.78915
だと思う	-8.79028
したい	-8.79151
してた	-8.79155
と思うけど	-8.79168
かなんか	-8.7921
られる	-8.79403
っちゃ	-8.79417
女	-8.79454
意味	-8.79506
そんなの	-8.79725
去年	-8.79913
声	-8.79973
市	-8.8006
やり	-8.80071
N	-8.80078
研究	-8.8019
取って	-8.80319
あのね	-8.80762
この間	-8.80872
々	-8.81103
部屋	-8.81225
作	-8.8133
年間	-8.8136
使って	-8.81381
とかね	-8.81417
やだ	-8.81473
15	-8.81818
出た	-8.8197
知	-8.82116
って言ってた	-8.82312
あとで	-8.82327
数	-8.82373
屋	-8.8252
わたしは	-8.82677
何も	-8.82722
んですね	-8.82743
でもさ	-8.82861
思う	-8.83245
かかる	-8.83255
点	-8.83269
川	-8.83283
携帯	-8.83286
なんかさ	-8.83288
もらった	-8.83523
される	-8.83627
とかいって	-8.83878
しね	-8.84006
さんは	-8.8443
メ	-8.84529
次	-8.84552
だっけ	-8.84697
みたいに	-8.84722
かどうか	-8.84952
ていうか	-8.851
オ	-8.85131
けどー	-8.8514
夏	-8.85245
なに	-8.85373
嫌い	-8.85428
てー	-8.85649
先	-8.85662
ぞ	-8.85879
おんなじ	-8.85925
の先生	-8.85928
だめだ	-8.86114
的な	-8.86152
今年	-8.86201
ゆ	-8.86275
テレビ	-8.863
わね	-8.8644
発	-8.86454
ああいう	-8.86475
花	-8.86594
ズ	-8.86627
でき	-8.8669
行かない	-8.86694
もある	-8.86706
何だっけ	-8.86869
きれい	-8.8699
用	-8.87216
ポ	-8.87301
そうです	-8.87596
ぎ	-8.87823
心	-8.87893
っとる	-8.87912
わよ	-8.88192
来年	-8.88244
っけ	-8.88282
のとき	-8.88625
以上	-8.88645
自分が	-8.88722
明日	-8.88911
そうだねー	-8.89099
店	-8.89119
とは	-8.89171
なのね	-8.8926
はもう	-8.89383
じゃないですか	-8.895
たち	-8.89725
らん	-8.89792
近い	-8.89853
思い	-8.90453
料理	-8.90521
とー	-8.90607
っちゃった	-8.90652
ことが	-8.90686
ぐ	-8.90698
T	-8.90721
それに	-8.90722
たんだけど	-8.90919
なのに	-8.91024
ってさ	-8.91026
みたいなの	-8.91419
ありがとう	-8.91441
ながら	-8.91442
早い	-8.91523
グ	-8.91556
ちょ	-8.91624
あら	-8.91811
すると	-8.91819
さっき	-8.92125
なんとか	-8.92308
うそ	-8.92532
長い	-8.92534
出した	-8.92546
あたしも	-8.92596
大きい	-8.92647
考えて	-8.9286
木	-8.92887
って言った	-8.92889
屋さん	-8.92951
なんだって	-8.92986
R	-8.93542
なるほど	-8.93631
はない	-8.93633
うちは	-8.93733
だったっけ	-8.93775
ック	-8.93993
じゃなかった	-8.94038
不	-8.94264
作った	-8.94268
時代	-8.94322
よりも	-8.94353
られて	-8.94468
これが	-8.9466
入れる	-8.94686
50	-8.94963
っていうこと	-8.94981
さんと	-8.94994
その人	-8.94997
のときに	-8.95193
会話	-8.95195
でさー	-8.95396
家族	-8.95763
論文	-8.95766
ついて	-8.95801
そういうふうに	-8.95898
ダ	-8.96148
買う	-8.96206
ニ	-8.96233
そこまで	-8.96252
友達	-8.96269
内	-8.96447
字	-8.96456
ケーキ	-8.96499
もんで	-8.96529
人も	-8.9653
じゃないけど	-8.96537
力	-8.96654
られ	-8.96928
母	-8.96978
言わない	-8.97082
ほど	-8.97094
ーって	-8.97147
スト	-8.97206
嫌だ	-8.97424
少ない	-8.97443
ボ	-8.97648
んだったら	-8.97917
じゃなくって	-8.97937
行き	-8.98053
しちゃった	-8.98124
いいね	-8.98546
今日は	-8.9866
あんま	-8.98701
気がする	-8.9884
っぽい	-8.98872
そのまま	-8.98899
変	-8.99157
そうなんですか	-8.99271
ません	-8.99417
知らん	-8.99443
っていって	-8.9945
切	-8.99464
かしら	-8.99502
ざ	-8.99513
線	-8.99516
中に	-8.99577
ット	-8.99726
かん	-8.9974
いいんじゃない	-8.99934
そうやって	-9.00082
事	-9.00124
感	-9.00228
ですけど	-9.0025
そうだよねー	-9.00254
あれが	-9.00343
しかない	-9.00436
そうすると	-9.00464
してて	-9.00508
書いた	-9.00611
と思うよ	-9.00638
少し	-9.00713
とね	-9.00887
バス	-9.01118
だれか	-9.01423
読んで	-9.01469
つく	-9.01513
わけじゃない	-9.01528
今の	-9.0154
見る	-9.0155
すごいね	-9.01563
ああー	-9.0164
けれど	-9.01663
かけて	-9.01785
っこ	-9.01797
くれた	-9.01853
場所	-9.01855
いかん	-9.01959
なんかさー	-9.02016
わけよ	-9.02024
持ってる	-9.02084
やら	-9.02307
んや	-9.02348
くない	-9.02491
就職	-9.02506
文	-9.02513
あります	-9.02604
飛行機	-9.02629
先生に	-9.02767
帰る	-9.02913
があるから	-9.02944
面	-9.03391
私たち	-9.03403
部	-9.03422
ことを	-9.03584
わりと	-9.03585
ネ	-9.0363
なった	-9.03767
フランス	-9.04108
えて	-9.0415
性	-9.04177
おばあちゃん	-9.04227
今まで	-9.0425
中国	-9.04285
お茶	-9.04341
行こう	-9.04415
っちゃって	-9.04529
そうですよね	-9.05106
100	-9.05233
へん	-9.0544
だな	-9.05512
かって	-9.0555
ても	-9.05604
わかって	-9.05702
、「	-9.05772
田	-9.05823
バー	-9.05824
限	-9.05831
かっこいい	-9.05913
っか	-9.05951
ビ	-9.06144
人に	-9.06444
言ってる	-9.06469
同	-9.0662
そういえば	-9.06661
書く	-9.06689
飲んで	-9.06707
言われて	-9.06848
この人	-9.06912
イン	-9.07118
なんだよ	-9.07127
んでしょ	-9.07164
女の子	-9.07187
海	-9.07206
とる	-9.07226
肉	-9.07275
絵	-9.07486
ところで	-9.07568
聞く	-9.07631
韓国	-9.07666
入る	-9.07918
若い	-9.0793
40	-9.08128
そんで	-9.08151
あるじゃん	-9.08156
新しい	-9.08375
はず	-9.08405
わー	-9.08445
特に	-9.08696
出てくる	-9.08704
ご飯	-9.0879
だからー	-9.08934
いいよね	-9.08967
デ	-9.09114
くれ	-9.09153
産	-9.09153
された	-9.09166
日本の	-9.09254
つか	-9.09408
だからさ	-9.09476
られない	-9.09549
全然違う	-9.09575
ティ	-9.09735
集	-9.09833
週間	-9.09976
薬	-9.10007
ホテル	-9.10013
時半	-9.10111
やばい	-9.10164
期	-9.10267
そのあと	-9.10511
帰り	-9.10592
なんですけど	-9.10612
どっち	-9.10763
ほいで	-9.1083
それこそ	-9.10923
雪	-9.1095
しょうがない	-9.10959
これを	-9.11038
赤	-9.11077
どうも	-9.11537
こういうの	-9.11574
自	-9.11624
日に	-9.11721
いいけど	-9.1186
やったら	-9.11888
連れて	-9.11895
どれ	-9.11907
ろう	-9.12237
引	-9.12317
動	-9.12343
みんなで	-9.12381
人間	-9.12442
やろう	-9.1249
そうね	-9.12553
風	-9.12584
生活	-9.12602
教えて	-9.12604
開	-9.1262
小学校	-9.127
痛い	-9.12759
寒い	-9.12862
してない	-9.12945
60	-9.13198
の方に	-9.13483
これで	-9.13684
楽しい	-9.13978
そこの	-9.14083
冬	-9.14342
モ	-9.14646
だもんね	-9.14648
うまく	-9.14667
かい	-9.1482
くなる	-9.14951
いった	-9.15015
みたいで	-9.15028
のー	-9.15067
元気	-9.15129
ール	-9.15151
教育	-9.15204
式	-9.15243
そのとき	-9.15397
1000	-9.15437
会った	-9.15472
ないよね	-9.15621
いいなー	-9.15656
ってさー	-9.15663
なかったら	-9.15671
いやいや	-9.1582
置いて	-9.15853
なーい	-9.15978
行ったら	-9.16062
になってる	-9.16084
ばか	-9.16088
ケ	-9.16095
わかんないけど	-9.16228
テ	-9.16419
別	-9.16485
定	-9.16642
どうする	-9.16671
って言われた	-9.16804
理	-9.16891
お姉ちゃん	-9.17104
つき	-9.17236
それだけ	-9.17259
見たら	-9.1742
さんに	-9.17449
終わり	-9.17451
実	-9.17589
もいい	-9.17658
科	-9.17798
まー	-9.17802
なんだろう	-9.17848
つい	-9.1793
休み	-9.17943
ちゃんが	-9.17977
文化	-9.17989
ましょう	-9.18023
られた	-9.18028
その辺	-9.18128
かもしれないけど	-9.18299
びっくりした	-9.18348
って思う	-9.18373
奥さん	-9.18543
プ	-9.18621
えーっと	-9.18645
すぎ	-9.18729
側	-9.18881
忙しい	-9.18902
試験	-9.18907
実は	-9.18942
ター	-9.1896
の中に	-9.19176
音	-9.19242
なんかねー	-9.19334
年生	-9.1942
なり	-9.19666
もー	-9.19831
どうやって	-9.19834
ほん	-9.19852
なんですか	-9.19861
やりたい	-9.19918
やめ	-9.19989
したの	-9.19996
困る	-9.20089
京都	-9.20156
向こう	-9.20209
んだっけ	-9.20251
が一番	-9.20298
ラン	-9.20368
るけど	-9.20474
女の人	-9.2054
の方は	-9.20643
紙	-9.20717
台	-9.20768
好きな	-9.20776
魚	-9.20786
ちっちゃい	-9.20949
なんだよね	-9.21088
って思って	-9.21323
します	-9.21445
ここで	-9.21529
成	-9.21723
三	-9.21726
煮	-9.21735
要するに	-9.21736
ればいい	-9.21777
言わ	-9.21871
にする	-9.21887
とかは	-9.22062
うちら	-9.22253
当	-9.22479
ディ	-9.22695
量	-9.22698
乗って	-9.22739
前の	-9.22779
106	-9.22932
ほしい	-9.23151
いいんだけど	-9.23195
ころ	-9.23213
んだもん	-9.23434
歩いて	-9.2344
の子	-9.23559
それでも	-9.23652
服	-9.2366
妹	-9.23666
小さい	-9.23688
はあ	-9.23731
話を	-9.23754
ということ	-9.23814
ちょっと待って	-9.23928
休	-9.23955
だったかな	-9.24122
いう	-9.2413
が違う	-9.24311
かわいそう	-9.24331
ものを	-9.24402
ていう	-9.24408
行ける	-9.24431
犬	-9.24467
そうだった	-9.24472
に行った	-9.24479
あるよ	-9.24502
飲み	-9.2454
欲しい	-9.24547
野	-9.24581
セ	-9.24582
表	-9.24623
沖縄	-9.24649
おもしろかった	-9.24654
おいしかった	-9.24669
こういうふうに	-9.24749
について	-9.24893
もない	-9.25005
にね	-9.25244
なかったの	-9.25287
とか言われて	-9.25331
りとか	-9.2547
いけない	-9.25481
ほんとは	-9.25506
室	-9.25586
役	-9.25637
しゃ	-9.25662
うまい	-9.25739
の中で	-9.25783
ないじゃん	-9.25827
MD	-9.25864
座	-9.25989
やね	-9.26008
んじゃないかな	-9.26262
言われた	-9.26279
友だち	-9.26302
れてる	-9.26362
でもなんか	-9.26363
あり	-9.26425
身	-9.26481
ギ	-9.26615
あまり	-9.26626
イメージ	-9.26637
出し	-9.26647
発表	-9.26655
と思ったら	-9.2666
留学生	-9.26679
しゃべ	-9.26694
ため	-9.26798
んじゃん	-9.26871
時間が	-9.26895
くれて	-9.27047
そうじゃない	-9.27087
これも	-9.272
初め	-9.27444
この辺	-9.27454
安	-9.27516
行け	-9.2753
いっつも	-9.27651
とかいう	-9.27676
その子	-9.2778
とかさー	-9.27839
月の	-9.27932
そっち	-9.28027
か何か	-9.28042
あるから	-9.28194
かもしれん	-9.28205
そして	-9.28205
待って	-9.28217
よくない	-9.28378
男の子	-9.2864
コーヒー	-9.28668
だろ	-9.28675
もともと	-9.28685
言	-9.28812
出てる	-9.2895
たって	-9.29094
ところが	-9.29201
分ぐらい	-9.29247
つけて	-9.29332
ないし	-9.29352
書き	-9.29482
所	-9.29575
ザ	-9.29697
ヤ	-9.29699
まーす	-9.2979
変わった	-9.29808
取	-9.29865
まじで	-9.29979
着て	-9.30093
それって	-9.30162
人ぐらい	-9.30181
やってて	-9.30193
んやけど	-9.30247
でした	-9.30261
広	-9.30297
いいや	-9.30299
かない	-9.30315
しさ	-9.30548
確か	-9.30558
ーっと	-9.30613
んですけどね	-9.30637
ものが	-9.30648
んじゃ	-9.30679
もね	-9.30717
大阪	-9.30731
県	-9.30741
ビデオ	-9.30741
なさい	-9.30788
ッて	-9.30802
黒	-9.30889
見える	-9.30981
明	-9.3099
いたら	-9.31026
会って	-9.31193
たり	-9.31207
なるほどね	-9.31229
来ない	-9.31242
だれが	-9.31288
どこに	-9.31357
もらう	-9.31491
重	-9.31516
先生は	-9.31532
人と	-9.31539
機	-9.31746
売って	-9.31759
ますよ	-9.31809
録音	-9.31845
からさー	-9.3195
何でも	-9.31963
そー	-9.3199
のところ	-9.32123
半	-9.32382
するの	-9.32428
半分	-9.32466
おー	-9.32634
直	-9.32652
和	-9.32824
右	-9.32849
Q	-9.32856
必ず	-9.32857
美	-9.32858
だいじょうぶ	-9.32858
新聞	-9.32869
13	-9.33031
CD	-9.33067
あっち	-9.3313
たくない	-9.33225
だか	-9.33311
太	-9.3342
の名前	-9.33493
員	-9.33529
ーン	-9.33571
様	-9.33671
なんかこう	-9.33673
これから	-9.33753
ベ	-9.33825
ける	-9.33858
論	-9.33905
だんだん	-9.33918
丸	-9.33933
U	-9.33934
連絡	-9.33935
たん	-9.34134
立	-9.34386
そっかそっか	-9.34389
って思った	-9.34421
なべ	-9.34527
気に	-9.34632
作る	-9.34726
行くの	-9.34886
さんも	-9.34896
クリスマス	-9.3502
猫	-9.35021
火	-9.35021
コンピュータ	-9.35021
結婚	-9.35116
遠い	-9.3517
いるの	-9.35172
かなと思って	-9.3519
いいな	-9.35251
ワー	-9.35472
みて	-9.35629
の中	-9.35683
話す	-9.35852
乗	-9.35926
持ち	-9.36062
しゃべって	-9.36279
僕は	-9.36325
話し	-9.36356
ハ	-9.3638
なのか	-9.36401
っていうのを	-9.36431
けどさ	-9.36455
います	-9.36466
入った	-9.3648
やすい	-9.36496
るわけ	-9.36505
コン	-9.36563
おか	-9.36583
逆に	-9.36641
ちゃんは	-9.36682
りして	-9.368
ごめんね	-9.36862
意	-9.36994
され	-9.37006
思って	-9.37009
化	-9.37212
西	-9.37225
Y	-9.3723
ある程度	-9.37283
気持ち	-9.37325
だわ	-9.37355
違うの	-9.37445
くって	-9.37541
俺は	-9.37691
車で	-9.37723
古	-9.38075
なこと	-9.382
電車	-9.38251
無	-9.38328
館	-9.3833
運転	-9.38353
じゃーん	-9.3842
でもさー	-9.3844
遅い	-9.3844
最初に	-9.38496
でいい	-9.38546
受け	-9.38578
14	-9.3863
主	-9.38656
わたしも	-9.38704
が好き	-9.38832
とかで	-9.38839
せる	-9.38959
としては	-9.39128
ほんとだ	-9.39133
僕	-9.39209
言ったら	-9.39304
ったの	-9.39422
んと	-9.39456
断	-9.39488
サン	-9.39555
付	-9.39577
とって	-9.39617
なってる	-9.39656
使ってる	-9.39659
なんです	-9.39716
あげる	-9.39724
と思うんだけど	-9.39801
お店	-9.3981
にさ	-9.39822
実際	-9.40109
大学院	-9.40113
いらない	-9.40214
帰	-9.40246
ぐらいの	-9.40361
マイク	-9.40413
なのかな	-9.40438
みたいな感じ	-9.4049
しまった	-9.40501
指	-9.40554
業	-9.40584
弁	-9.40624
なくなる	-9.40649
が多い	-9.40651
お正月	-9.40698
マン	-9.40727
終わって	-9.40734
500	-9.40748
弟	-9.40911
ために	-9.41003
海外	-9.41024
部分	-9.41026
かもね	-9.41086
洗	-9.41113
言われ	-9.41115
隣	-9.41185
ところに	-9.41193
そんな感じ	-9.41273
説明	-9.41406
習	-9.41431
っとった	-9.4147
んだね	-9.41501
イタリア	-9.41666
ばっか	-9.41715
原	-9.41782
病院	-9.418
テープ	-9.41803
背	-9.41804
橋	-9.41804
べつに	-9.41804
ゆっくり	-9.4181
ような気がする	-9.41902
全く	-9.41967
なくなった	-9.42055
っていうふうに	-9.42071
古い	-9.42092
返	-9.42146
思った	-9.42169
そば	-9.42285
落	-9.42449
とった	-9.42479
南	-9.42564
正	-9.42575
もあるし	-9.42598
だけどね	-9.42642
戻	-9.42729
彼	-9.42761
何ていうの	-9.42837
出ない	-9.4286
品	-9.4296
一生懸命	-9.42975
パソコン	-9.42978
だいぶ	-9.42988
うそー	-9.42993
似てる	-9.42996
どうぞ	-9.43038
がさ	-9.43038
している	-9.43206
取った	-9.43225
後ろ	-9.43306
まあね	-9.43426
とっても	-9.43499
なんですよ	-9.43513
使わない	-9.43806
お昼	-9.4387
切り	-9.43883
引き	-9.44013
ノ	-9.44069
おっきい	-9.4417
データ	-9.4417
裏	-9.4417
読む	-9.44187
フランス語	-9.44197
004	-9.4421
法	-9.44226
取る	-9.44353
なと思って	-9.44365
こっちに	-9.44392
のかなー	-9.44511
みんなが	-9.44552
ずつ	-9.44586
近く	-9.44706
るんだ	-9.44731
なくても	-9.44976
、10	-9.4505
東	-9.45166
電	-9.45296
消	-9.45331
トイレ	-9.45375
情報	-9.45375
おまえ	-9.45384
をして	-9.4546
200	-9.45523
ーとか言って	-9.45656
なかったから	-9.45701
切って	-9.4571
なければ	-9.45804
ダー	-9.4582
んな	-9.4589
んですって	-9.45927
行ったの	-9.46097
安く	-9.46127
横	-9.46213
はある	-9.46245
やっと	-9.46265
必要	-9.46389
番	-9.4643
しょ	-9.46435
彼女	-9.46468
そうそうそうそうそう	-9.46468
けて	-9.4648
どんどん	-9.46576
とかって言って	-9.4658
階	-9.46584
いきなり	-9.46585
歯	-9.46588
北海道	-9.46592
タイプ	-9.46603
オー	-9.46615
読み	-9.46649
だよねー	-9.46679
相手	-9.46681
よし	-9.46881
広い	-9.47278
いいか	-9.47409
覚え	-9.47414
土	-9.47532
そんなことない	-9.47664
割	-9.47666
たまに	-9.47679
元	-9.4769
治	-9.47805
先輩	-9.4783
たまたま	-9.47838
んだろうね	-9.47904
あたしは	-9.4794
週	-9.47997
それでね	-9.48004
食べない	-9.48142
ふう	-9.48383
強い	-9.48446
いくつ	-9.48485
渡	-9.48517
切れ	-9.4856
関係ない	-9.48654
りゃ	-9.48751
雑	-9.48837
とかー	-9.48924
使える	-9.48978
転	-9.49068
つらい	-9.49086
子が	-9.493
しても	-9.49424
りする	-9.49434
の人は	-9.49571
ゆう	-9.49695
かね	-9.49761
学部	-9.49823
書いてある	-9.49874
いるから	-9.49926
ますよね	-9.50082
住	-9.50232
言語	-9.50271
使	-9.50304
言えない	-9.50324
石	-9.50339
はーい	-9.50597
男の人	-9.50613
最初は	-9.5063
怒	-9.50687
できた	-9.50834
おい	-9.50853
ライ	-9.50877
ここの	-9.50965
ぜ	-9.50974
だー	-9.51047
それと	-9.51062
だろうね	-9.51064
しゃべる	-9.51134
ないでしょう	-9.51137
パー	-9.51175
とも	-9.51204
んだけどさ	-9.51375
って何	-9.51385
卒業	-9.51458
そうな	-9.51474
進	-9.51558
置	-9.51613
二	-9.5162
途中で	-9.51621
ときどき	-9.51622
練習	-9.51622
V	-9.51628
空港	-9.51631
おばさん	-9.51644
女性	-9.51647
るんだけど	-9.51806
けれども	-9.51855
よくわかんない	-9.5187
大学の	-9.51947
をね	-9.51962
たけど	-9.5197
を持って	-9.51978
的	-9.52142
があるの	-9.5239
そういうのは	-9.52423
時から	-9.52474
んだけどね	-9.52556
とさ	-9.52639
てた	-9.52667
次の	-9.5279
になったら	-9.52794
あるよね	-9.5281
覚えてない	-9.52837
ッチ	-9.52911
飲む	-9.52938
テスト	-9.52943
替え	-9.53173
人たち	-9.53217
なのよ	-9.53354
待	-9.53423
と一緒に	-9.53476
ことがある	-9.53802
見てる	-9.53809
こんなに	-9.53922
聞き	-9.53936
変わる	-9.53966
調	-9.53985
が悪い	-9.54011
選	-9.54054
きれいな	-9.54101
起こ	-9.54189
ッと	-9.54203
島	-9.54231
土曜日	-9.5424
田舎	-9.54242
感じで	-9.5429
言われる	-9.54361
あれを	-9.54382
うるさい	-9.54396
帰ってきて	-9.5447
というのは	-9.54556
おいしそう	-9.54564
行くと	-9.5457
になっちゃう	-9.54591
終わる	-9.54622
、6	-9.54663
知らなかった	-9.54731
れん	-9.54743
よねえ	-9.54754
ちゃんの	-9.54889
っていうのも	-9.54894
あるけど	-9.54919
ぱ	-9.55089
とかに	-9.55274
乗り	-9.55346
ってことは	-9.55385
笑	-9.55409
状態	-9.55516
費	-9.55528
愛	-9.55562
型	-9.55569
左	-9.55572
内容	-9.55577
両方	-9.556
だったんだけど	-9.55809
ってね	-9.55826
最後	-9.55888
聞いたら	-9.55967
ロー	-9.5603
残	-9.5619
いえ	-9.56271
のよね	-9.56293
家に	-9.56351
みそ	-9.5637
、8	-9.56402
25	-9.56421
通って	-9.56576
急に	-9.56599
らしいよ	-9.56626
熱	-9.56655
月に	-9.5667
カー	-9.56702
ものは	-9.56852
解	-9.56907
ヒ	-9.56912
質問	-9.5692
勝手に	-9.56926
第	-9.56926
そうなんだー	-9.56998
落ち	-9.57039
ないんだ	-9.57087
ぽ	-9.57135
んど	-9.57198
今度は	-9.572
って言うから	-9.57231
もさ	-9.57288
はいはい	-9.57361
先に	-9.57382
送	-9.57445
みたいな感じで	-9.57483
んとき	-9.57484
るよ	-9.57512
大変だ	-9.57677
売ってる	-9.57722
だってさ	-9.57796
入り	-9.57838
ではない	-9.58019
、5	-9.5802
いけ	-9.58116
おう	-9.58161
のとこ	-9.58194
ひどい	-9.58294
雰囲気	-9.58295
チーズ	-9.58295
偉い	-9.58312
食べ物	-9.58413
んだー	-9.5843
見えない	-9.586
うわ	-9.58643
付け	-9.58871
しちゃう	-9.59085
っていう感じで	-9.5915
あそこの	-9.59256
かか	-9.59271
目が	-9.59419
茶	-9.5944
によって	-9.59458
だとか	-9.5951
るし	-9.59556
髪	-9.59675
すごーい	-9.59694
込んで	-9.59703
流	-9.59772
でもねー	-9.5978
そのときに	-9.5983
ほかに	-9.59864
なんにも	-9.59921
送って	-9.59949
くなって	-9.59984
を見て	-9.6015
使った	-9.60187
起き	-9.60197
ないんだけど	-9.60223
使い	-9.60392
日本に	-9.60465
違い	-9.60475
たま	-9.60484
になると	-9.60559
んとこ	-9.60573
終わった	-9.60632
もうね	-9.60756
へーえ	-9.60793
見てない	-9.60888
持	-9.60898
父	-9.60903
院	-9.60987
イギリス	-9.61088
教室	-9.61103
中学	-9.61199
よりは	-9.61224
うちも	-9.61328
に入って	-9.61339
はっきり	-9.61525
されてる	-9.61567
平	-9.61626
上げ	-9.61653
んだと思う	-9.61785
をする	-9.61845
やー	-9.61894
かけ	-9.61962
のかなあ	-9.62176
天	-9.62228
るのは	-9.62254
私ね	-9.62278
びっくり	-9.62297
何にも	-9.62317
アル	-9.62347
入ってない	-9.62398
前は	-9.62419
興味	-9.62522
違います	-9.62598
来てる	-9.62607
一度	-9.62637
何ていうか	-9.6265
にした	-9.6277
周り	-9.6318
しました	-9.63332
最初の	-9.63431
あげ	-9.63576
回って	-9.6368
全	-9.63688
形	-9.63708
出てた	-9.63832
専門	-9.6387
してくれ	-9.63881
泊	-9.639
ング	-9.63914
仕	-9.63953
袋	-9.6396
俳句	-9.63974
023	-9.63985
話して	-9.64099
近	-9.64171
みよう	-9.64182
歳まで	-9.64196
教え	-9.64212
ないもん	-9.6422
はねー	-9.64243
そういうのが	-9.64271
させて	-9.64283
死	-9.6447
大人	-9.64528
違って	-9.64553
にいる	-9.6461
頑張って	-9.64671
ワ	-9.64745
ップ	-9.64814
昔は	-9.65028
にある	-9.65085
変わって	-9.65161
ぴ	-9.6517
ぐらいで	-9.65257
つの	-9.65329
社	-9.65336
なっちゃう	-9.65375
心配	-9.65395
職	-9.65411
ホ	-9.65428
春	-9.65432
写	-9.65434
普段	-9.65441
キロ	-9.65519
高校生	-9.65522
んだよねー	-9.65625
あれも	-9.65655
ピー	-9.65658
さえ	-9.65707
ほう	-9.65724
時間ぐらい	-9.65852
まずい	-9.65947
おお	-9.66041
読んだ	-9.66054
焼	-9.66113
なくなって	-9.66215
働いて	-9.66265
あたしが	-9.66267
見ると	-9.66361
ができる	-9.66508
えーっ	-9.66583
止め	-9.66848
減	-9.66865
乗る	-9.66877
席	-9.66881
訳	-9.66914
台湾	-9.66927
お菓子	-9.66933
かもしんない	-9.66934
不思議	-9.66935
まっすぐ	-9.66935
油	-9.66941
ゴ	-9.67111
上手	-9.67149
ドル	-9.67183
歳から	-9.67212
パリ	-9.67442
んち	-9.67459
姉	-9.67554
ですから	-9.6767
ごはん	-9.67787
でもやっぱり	-9.6796
お母さんが	-9.67972
いたの	-9.68054
大好き	-9.6806
教	-9.68092
前から	-9.68132
通り	-9.68177
みたいの	-9.68261
みたら	-9.68279
のかしら	-9.68359
料	-9.68365
対	-9.68419
課	-9.68441
配	-9.68443
神	-9.68444
いわゆる	-9.68448
関西	-9.68449
.	-9.68451
帰ってきた	-9.68456
の人たち	-9.68456
出てきた	-9.68517
どこで	-9.68526
帰ってくる	-9.68527
たりする	-9.68528
間に	-9.68582
何年	-9.68624
昔の	-9.68665
俺も	-9.68853
たぶんね	-9.68948
どういうこと	-9.69006
だったけど	-9.6913
っつって	-9.69165
いいかな	-9.69185
いいのかな	-9.69603
やらない	-9.69604
ソ	-9.69715
してるから	-9.6974
ってのは	-9.69755
すぎる	-9.69799
タイ	-9.69842
関	-9.69858
あそこに	-9.69872
がすごい	-9.69942
光	-9.69967
てさ	-9.69972
食べたい	-9.69987
民	-9.69988
センター	-9.69992
ほか	-9.70004
もらえる	-9.70011
実習	-9.70025
まる	-9.70106
かわい	-9.70141
世界	-9.70157
あったの	-9.70223
ないといけない	-9.70304
行ってた	-9.7033
売り	-9.7057
学会	-9.70777
そうよ	-9.70783
何だろう	-9.70871
だからさー	-9.70956
あれって	-9.71
行ってる	-9.71138
この子	-9.7121
ぐらいに	-9.71242
ってない	-9.7127
けない	-9.71276
18	-9.7138
読	-9.71389
23	-9.71407
しまう	-9.71445
ずに	-9.715
かと思った	-9.71504
真	-9.71516
反	-9.71523
号	-9.71528
青	-9.71543
質	-9.71544
卵	-9.71544
月曜日	-9.71548
ゲ	-9.71552
値段	-9.71553
格好	-9.71553
おじさん	-9.71556
あたしの	-9.71641
向いて	-9.71692
ないね	-9.71723
そうしたら	-9.71744
あたり	-9.71745
そうかそうか	-9.71834
病気	-9.71834
今から	-9.7189
実家	-9.7191
に居住	-9.71914
そんなもん	-9.72159
十分	-9.72192
悪	-9.72302
わかん	-9.7246
とか言ってた	-9.72564
言え	-9.72575
つける	-9.72621
年ぐらい	-9.727
英語で	-9.72732
よって	-9.72734
ことはない	-9.72747
時に	-9.72934
大事	-9.73038
らっしゃる	-9.73048
初	-9.73059
区	-9.7312
記	-9.73132
ずいぶん	-9.73133
戦	-9.73135
e	-9.73135
反対	-9.73142
全員	-9.73146
何かこう	-9.73161
覚えてる	-9.73172
どういうふうに	-9.73201
わない	-9.73208
その人が	-9.73244
降	-9.73353
なんていうか	-9.73627
円ぐらい	-9.73636
してくれる	-9.73678
のさ	-9.73976
させ	-9.74045
思ってる	-9.74122
たりとか	-9.74144
友達が	-9.74188
何かさ	-9.7419
終わ	-9.74392
頼	-9.74424
それぐらい	-9.74546
先生も	-9.74662
校	-9.74695
とかが	-9.74696
かと思って	-9.74701
留学	-9.74721
便	-9.74733
ション	-9.74743
皮	-9.74745
せっかく	-9.74749
書いてあった	-9.74774
すんの	-9.74815
ってー	-9.74844
出てこない	-9.7487
どっちか	-9.7488
だよー	-9.74913
になっちゃって	-9.75291
までは	-9.75308
人もいる	-9.75324
やな	-9.75329
んかった	-9.75359
そうかー	-9.75367
なし	-9.75416
とかっていう	-9.7542
教える	-9.75452
な感じ	-9.75776
なんていう	-9.75793
いてる	-9.75919
好きじゃない	-9.75975
危ない	-9.76015
けども	-9.76037
人とか	-9.76079
悪く	-9.76226
バン	-9.76251
焼き	-9.76305
組	-9.76317
かわかんない	-9.76317
利	-9.76359
箱	-9.76381
復	-9.76388
フィ	-9.76389
素	-9.7639
耳	-9.7639
ピアノ	-9.7639
えらい	-9.76401
ごめんなさい	-9.7642
カード	-9.76435
OK	-9.76472
人がいる	-9.76595
っぱ	-9.76644
でも何か	-9.76703
電気	-9.7672
うーんと	-9.76794
ないと思う	-9.77169
大の	-9.77283
自転車	-9.77365
白い	-9.77377
なんかすごい	-9.77383
いっぱいある	-9.77416
座って	-9.77417
いったら	-9.77446
ちゃんに	-9.77456
そろそろ	-9.77524
、30	-9.77563
中学校	-9.77689
回ぐらい	-9.77755
はあー	-9.77759
作り	-9.77759
ものすごい	-9.77818
腹	-9.7785
はさ	-9.77861
北	-9.77874
似	-9.78016
移	-9.78039
Z	-9.78055
生徒	-9.78058
厳しい	-9.78059
運動	-9.78067
講座	-9.78068
文字	-9.78068
ワイン	-9.7807
大きな	-9.78072
レベル	-9.78075
いただき	-9.78076
恥ずかしい	-9.78183
タン	-9.78199
ここは	-9.78324
やってない	-9.78355
らしくて	-9.78586
娘	-9.78603
長く	-9.78715
てて	-9.78835
任	-9.78944
感じがする	-9.79035
知ら	-9.79053
見てて	-9.79082
書い	-9.79084
思	-9.79115
どこの	-9.79174
とても	-9.79208
歩	-9.79358
日本語の	-9.79399
ュ	-9.79437
多	-9.79557
常	-9.79624
っていうような	-9.79641
入れた	-9.79703
戸	-9.79743
宮	-9.79746
器	-9.79747
温	-9.79751
ありがとうございます	-9.79752
もったいない	-9.79755
修論	-9.79756
便利	-9.79757
込み	-9.79774
イタリア語	-9.79776
動物	-9.79799
乗った	-9.79806
みた	-9.79847
たよ	-9.79853
親が	-9.79889
万円	-9.79924
やるの	-9.79939
的には	-9.79968
下手	-9.79973
土日	-9.80136
受	-9.80274
お金が	-9.80322
向こうの	-9.80326
ことに	-9.80448
言っと	-9.80569
使わ	-9.80864
わか	-9.80871
うわー	-9.80907
が出る	-9.80907
日本で	-9.80959
今年は	-9.81034
十	-9.81142
24	-9.81294
ほー	-9.81393
甘	-9.81413
基	-9.81443
日曜日	-9.8147
夢	-9.81471
鳴	-9.81474
経済	-9.81477
塩	-9.81483
とか言う	-9.81501
もしかして	-9.81502
毎年	-9.81504
やっぱりね	-9.81518
モン	-9.81527
このごろ	-9.8155
うれしい	-9.81565
戻って	-9.81571
にくい	-9.81586
しゅ	-9.81651
どうだろう	-9.81735
日本語で	-9.81749
でもいい	-9.81836
どうせ	-9.81848
つもり	-9.81981
00	-9.82025
ここまで	-9.82056
早	-9.82096
起きて	-9.82137
痛	-9.82156
今回	-9.8221
せん	-9.82358
のところに	-9.82397
聞こえ	-9.82568
ブル	-9.8267
行か	-9.82696
できて	-9.82737
入ってた	-9.82779
たのね	-9.82782
離	-9.82798
わたしが	-9.82835
みる	-9.82857
お父さんが	-9.82991
ついてる	-9.83006
大きく	-9.83026
はいい	-9.83034
考える	-9.83078
載	-9.83151
過ぎ	-9.83172
すればいい	-9.83192
優	-9.83214
折	-9.8322
わざわざ	-9.83228
栄	-9.8323
特	-9.83314
話題	-9.83391
コース	-9.83438
と一緒	-9.83451
楽しみ	-9.83497
19	-9.8351
暑い	-9.83521
ますか	-9.83643
急	-9.83643
コー	-9.83659
なんだけどー	-9.83756
どー	-9.83808
んよ	-9.83815
っていう話	-9.83914
買い	-9.83962
じゃねえ	-9.84018
見え	-9.8412
言い方	-9.84181
ったり	-9.84183
先生と	-9.84192
あれば	-9.84218
社会	-9.84223
合わせ	-9.84232
うちで	-9.84348
そういう感じ	-9.84353
最後の	-9.84387
アメリカの	-9.84627
にしても	-9.84728
なくていい	-9.84755
るような	-9.84841
味が	-9.84901
好きなの	-9.84948
結	-9.84991
辞め	-9.85001
準備	-9.85009
村	-9.8501
そうよね	-9.85012
福	-9.85012
収	-9.85012
忘れちゃった	-9.85012
ユ	-9.85012
香	-9.85014
非常勤	-9.85015
教科書	-9.85016
カレー	-9.85019
シュ	-9.85031
伝	-9.85043
日の	-9.85092
頼んで	-9.85093
いける	-9.85126
どうしても	-9.85129
すれば	-9.85131
アイ	-9.85247
ふん	-9.85315
なーと思って	-9.85385
あーあ	-9.85444
なんでも	-9.85476
日は	-9.8548
そう思う	-9.85505
張	-9.85518
んだわ	-9.85571
合う	-9.85588
違う違う	-9.85624
見せ	-9.85638
あったら	-9.85657
ひま	-9.85766
人って	-9.85855
はやっぱり	-9.8587
住んで	-9.8618
シー	-9.86236
まあまあ	-9.86287
向こうで	-9.86369
何かねー	-9.86467
会う	-9.86557
くなった	-9.86586
現	-9.86613
行ったことない	-9.8664
アン	-9.86721
工	-9.86747
採	-9.86772
公	-9.86808
画	-9.86813
端	-9.86829
サラダ	-9.86832
i	-9.86833
鳥	-9.86833
種類	-9.86836
スキー	-9.86872
めんどくさい	-9.86897
やんか	-9.86923
てない	-9.86942
答え	-9.86951
とか思う	-9.8696
じゃないよ	-9.87009
カル	-9.87034
っちゅう	-9.87072
おっ	-9.87202
下に	-9.87311
ブラ	-9.87314
英語の	-9.87331
80	-9.87355
ましたよ	-9.87451
がい	-9.87467
あるんだけど	-9.87619
嫌な	-9.8766
ハン	-9.87711
そこは	-9.87713
微妙	-9.87722
上が	-9.87789
行ってない	-9.87853
ならない	-9.87871
パパ	-9.87915
遠く	-9.87979
踊	-9.87992
事務	-9.8806
てね	-9.88279
つけた	-9.88288
どうなんだろう	-9.88429
俺の	-9.88458
なんでー	-9.88498
始めた	-9.88584
根	-9.88599
靴	-9.88605
覚えて	-9.88639
情	-9.88661
片	-9.88667
グループ	-9.88678
約	-9.88678
だれも	-9.88678
野菜	-9.8868
吸	-9.88682
誕生日	-9.88684
076	-9.88685
荷物	-9.88686
余裕	-9.88687
俺が	-9.88783
こん	-9.88811
どうし	-9.88813
のことを	-9.88855
こちら	-9.88869
子は	-9.88887
下が	-9.89061
平気	-9.89089
難	-9.89119
はちょっと	-9.8916
しさー	-9.89288
らしくって	-9.89293
テレビで	-9.89507
っつ	-9.89535
しないと	-9.8959
なあかん	-9.89603
しなきゃいけない	-9.89663
と同じ	-9.89703
んだろ	-9.89766
いとこ	-9.89777
のために	-9.89816
ことある	-9.89861
5000	-9.89993
あれで	-9.90063
ちょっとね	-9.90104
ちゅう	-9.90106
捨て	-9.90116
のを	-9.90123
時ぐらい	-9.90186
行けば	-9.90268
なくてもいい	-9.90348
相	-9.90413
信	-9.90511
ペ	-9.90524
得	-9.90553
やると	-9.90556
わけでしょう	-9.90563
制	-9.90566
資料	-9.90571
済	-9.90573
米	-9.90573
冊	-9.90573
歴	-9.90573
表現	-9.90576
最悪	-9.90577
みんなに	-9.90691
撮って	-9.90695
じゃないから	-9.90752
ニュース	-9.90818
本当は	-9.90848
わけね	-9.90918
話が	-9.90956
まった	-9.90998
たんだ	-9.91039
あいつ	-9.91167
取られ	-9.91254
君が	-9.91264
細	-9.91329
知って	-9.91352
人とも	-9.91476
それとも	-9.91532
売れ	-9.91548
人いる	-9.91602
ちょっと違う	-9.91663
リン	-9.91678
きつい	-9.91731
なっちゃった	-9.91909
なかったけど	-9.91914
てさー	-9.92022
残って	-9.92054
寝て	-9.92063
ついた	-9.92092
マー	-9.92176
になるの	-9.92185
らしいんだけど	-9.92238
マイ	-9.92319
見に	-9.92383
最後に	-9.92389
きれいに	-9.92392
どうした	-9.92444
慣れ	-9.92485
保	-9.9249
検査	-9.9249
井	-9.92493
首	-9.92493
ドクター	-9.92493
ゲーム	-9.92494
むかつく	-9.92495
毛	-9.92495
緑	-9.92495
経験	-9.92497
センチ	-9.92513
ファン	-9.92522
食事	-9.92543
持ってきて	-9.92571
プロ	-9.92579
中国語	-9.92584
しっかり	-9.92585
多かった	-9.92677
振り	-9.92688
細い	-9.92726
取れる	-9.92739
さんって	-9.92775
甘い	-9.92833
調べて	-9.92872
音が	-9.9297
聞	-9.9302
探して	-9.93034
だれかが	-9.93111
に行ってる	-9.93171
ボー	-9.93185
強	-9.93313
家の	-9.93367
だからもう	-9.93615
ーとか	-9.93695
韓国の	-9.93703
思い出	-9.93718
んですけどー	-9.9375
そうでしょう	-9.93816
系の	-9.93823
してー	-9.93831
って感じで	-9.93861
思い出した	-9.93876
おる	-9.93886
彼は	-9.93886
かり	-9.93918
ときには	-9.94068
の問題	-9.94202
ほっと	-9.94226
薄	-9.94234
こっちの	-9.94241
学校の	-9.94316
がいっぱい	-9.94353
応	-9.94368
兄	-9.94423
スペイン	-9.94437
路	-9.94438
触	-9.94442
観	-9.94447
師	-9.94447
差	-9.94452
しばらく	-9.94455
種	-9.94456
インターネット	-9.94457
横浜	-9.9446
よけい	-9.94464
あのとき	-9.94468
しましょう	-9.94474
夏休み	-9.94486
並んで	-9.94496
上がって	-9.94498
ワン	-9.94499
ビール	-9.94511
いかない	-9.94572
ノート	-9.94588
場合	-9.94637
思わ	-9.94639
レン	-9.94669
るよね	-9.94682
文学	-9.94683
でもー	-9.94849
できん	-9.94946
が来て	-9.94962
ないわけ	-9.951
年前	-9.95168
70	-9.95194
けばいい	-9.9535
の上に	-9.95374
時期	-9.95419
の近く	-9.95489
絶対に	-9.95629
いい人	-9.95893
気分	-9.95919
人気	-9.95989
昼	-9.96177
リア	-9.96188
やめて	-9.96229
決まって	-9.96285
かたち	-9.96293
になっちゃった	-9.96339
宿	-9.96407
穴	-9.96421
お願い	-9.96443
』	-9.96444
『	-9.96445
血	-9.9645
なんとなく	-9.96451
許	-9.96454
セット	-9.96456
松	-9.96456
すんごい	-9.96457
ストレス	-9.96457
単位	-9.96457
技	-9.96457
寮	-9.96458
壁	-9.96458
街	-9.96458
に対して	-9.96463
買い物	-9.96485
くれない	-9.96569
もうほんとに	-9.96646
短い	-9.96659
残ってる	-9.96809
売	-9.96879
けば	-9.96886
なんだろうね	-9.97047
自然	-9.97063
んでしょうね	-9.97074
少	-9.97109
もう全然	-9.97117
あーあー	-9.97167
なったら	-9.97189
外国人	-9.97206
うんうんうんうん	-9.97208
のかもしれない	-9.97277
のさー	-9.97291
時まで	-9.97509
ふうーん	-9.97569
行けない	-9.97593
って言うの	-9.97739
と思	-9.97791
いいですね	-9.97862
生き	-9.97916
寒	-9.97983
何人	-9.98024
入れない	-9.98093
知らないけど	-9.98151
来てた	-9.98173
止	-9.98221
こんなん	-9.98255
に来て	-9.98257
は全然	-9.98259
ごろ	-9.98262
うどん	-9.98263
寺	-9.98293
旅	-9.98385
違	-9.98398
閉	-9.98417
だめなの	-9.98459
登	-9.98471
るか	-9.98483
金曜日	-9.98488
お客さん	-9.98492
誘	-9.98493
城	-9.98494
基本的に	-9.98494
借りて	-9.98496
積	-9.98496
よっぽど	-9.98497
粉	-9.98497
ウサギ	-9.98498
漢字	-9.98501
飛び	-9.98515
助	-9.98516
するから	-9.98522
結婚式	-9.98522
立ち	-9.98548
飛んで	-9.98562
楽しかった	-9.98594
考えると	-9.98599
のある	-9.9866
きます	-9.98667
るんですよ	-9.98688
が欲しい	-9.98725
あるんだ	-9.9875
って言われる	-9.98813
下り	-9.98833
年の	-9.98886
年に	-9.98891
これって	-9.98951
あんの	-9.98987
こない	-9.99075
としても	-9.99174
何々	-9.99206
ようになった	-9.99308
変え	-9.99313
そうかな	-9.99315
づ	-9.99358
要	-9.99499
ーッと	-9.99502
自体	-9.99547
遊びに	-9.99576
固	-9.99619
遅く	-9.99693
だけどー	-9.99731
よかったね	-9.99834
こんなの	-9.99854
でも私	-10
の部屋	-10.0002
分け	-10.0003
130	-10.0009
にいた	-10.0018
買わ	-10.0039
飛	-10.0047
じゃないと	-10.0047
それはね	-10.0055
冷	-10.0055
突	-10.0057
円で	-10.0057
千	-10.0057
虫	-10.0058
印象	-10.0058
機械	-10.0058
だいじょぶ	-10.0058
温泉	-10.0058
効	-10.0058
秋	-10.0058
W	-10.0058
初級	-10.0058
一般	-10.0058
予定	-10.0059
お願いします	-10.0059
いらっしゃる	-10.006
ピンク	-10.0061
ありますよね	-10.0061
ポンド	-10.0061
じゅう	-10.0061
呼んで	-10.0064
名字	-10.0066
けんか	-10.0074
歩く	-10.0075
巻き	-10.0077
家で	-10.0078
んのよ	-10.0081
にならない	-10.0082
若い人	-10.0083
そういうところ	-10.0085
だろうな	-10.0094
やけど	-10.0102
見たい	-10.0105
いなかった	-10.0107
子どもが	-10.011
見ない	-10.0121
っぽ	-10.0125
歌って	-10.0136
東京に	-10.0143
これだけ	-10.0154
しゃべり	-10.0159
だったんだ	-10.0169
に乗って	-10.019
文法	-10.0192
ガー	-10.0192
僕も	-10.0195
そうなん	-10.0195
しとる	-10.0198
楽し	-10.0206
考えてる	-10.0208
つって	-10.0212
フル	-10.0216
るところ	-10.0224
たしか	-10.0227
ありました	-10.024
打	-10.0244
トリ	-10.0245
っていうんで	-10.0253
電話して	-10.0253
けん	-10.026
お弁当	-10.0266
運	-10.0267
葉	-10.0267
テーマ	-10.0269
予	-10.0269
園	-10.0269
やせ	-10.027
守	-10.027
玉	-10.0271
鼻	-10.0271
トマト	-10.0271
クッキー	-10.0273
なくなっちゃった	-10.0273
行っちゃった	-10.0275
マジで	-10.0275
買いに	-10.0281
曲	-10.0281
ママ	-10.029
のときは	-10.03
って言ってたよ	-10.0302
いっ	-10.0306
ばかり	-10.0307
思ってた	-10.0313
そこから	-10.032
だったよ	-10.033
言える	-10.033
合わない	-10.0331
若	-10.0338
開けて	-10.0342
生協	-10.0354
どうなんだろうね	-10.0355
しちゃって	-10.0359
逆	-10.036
言うと	-10.036
出てきて	-10.0362
してんの	-10.0362
の方がいい	-10.0367
ああいうの	-10.0368
がー	-10.0375
歌う	-10.0404
話した	-10.0404
ほんとー	-10.0407
もんだから	-10.0407
ってくる	-10.0415
いいから	-10.0433
月から	-10.0436
調子	-10.0443
取れ	-10.0445
による	-10.0468
ること	-10.0474
級	-10.0475
かっていう	-10.0478
嫁	-10.0487
余	-10.0487
交	-10.0487
再	-10.0488
コンビニ	-10.0488
すてき	-10.0488
オーストラリア	-10.0488
坂	-10.0488
ヘ	-10.0488
レポート	-10.0488
めちゃめちゃ	-10.0488
帯	-10.0488
静岡	-10.0488
ご主人	-10.0489
国際	-10.049
に入る	-10.0494
仲いい	-10.0494
言ってたけど	-10.05
発音	-10.0511
まとめ	-10.0515
ときも	-10.0525
へえ	-10.0526
かなーと思って	-10.0528
夕方	-10.0529
勉強して	-10.0531
汚い	-10.0531
ですかね	-10.0537
ほんま	-10.0539
アップ	-10.0541
のもの	-10.0541
遠	-10.0541
ぜん	-10.0546
赤い	-10.055
でしたっけ	-10.0557
のころ	-10.0558
帰った	-10.0562
っち	-10.0562
がさー	-10.0563
私に	-10.0565
奥	-10.0571
決め	-10.0572
困	-10.0582
顔が	-10.0584
わかんなかった	-10.0604
日本語教育	-10.0608
といて	-10.0611
思っちゃう	-10.0615
してるの	-10.0619
大変な	-10.0623
にしよう	-10.0625
あの子	-10.0627
やること	-10.0631
いるじゃん	-10.0632
いいんだ	-10.0633
開け	-10.0643
なんかもう	-10.065
がすごく	-10.065
いいなあ	-10.0652
録	-10.0656
をやって	-10.0656
語学	-10.0656
いやいやいや	-10.066
食い	-10.0665
したり	-10.0685
回目	-10.069
行っても	-10.0703
昔から	-10.0706
百	-10.0707
持ってって	-10.0707
用の	-10.0707
寝る	-10.0708
ようと思って	-10.0708
満	-10.0708
たちが	-10.0708
談	-10.0709
退	-10.0709
値	-10.071
戦争	-10.071
加	-10.071
あたりまえ	-10.071
恋	-10.071
亡くなった	-10.071
激	-10.071
倍	-10.071
おばあさん	-10.071
もしかしたら	-10.0711
わかってる	-10.0713
音楽	-10.0714
出身	-10.072
来週	-10.0723
カキ	-10.0724
教会	-10.0724
音声	-10.0727
育	-10.0732
何分	-10.0753
いいねー	-10.0757
こんなこと	-10.0768
例	-10.0776
んのかな	-10.0781
って話	-10.0781
あの辺	-10.0788
どれぐらい	-10.0789
があるんだ	-10.0791
どの	-10.0799
000	-10.0806
個人	-10.0806
そういう話	-10.0807
と思ったんだけど	-10.0813
方言	-10.0822
んない	-10.0828
あげて	-10.0835
撮	-10.0839
聞いてる	-10.0842
ますけど	-10.0843
ってやつ	-10.0844
が出てくる	-10.0851
だもんで	-10.0855
けどさー	-10.0856
にー	-10.0857
失礼	-10.0858
外国	-10.0861
生きて	-10.0862
か月ぐらい	-10.0865
ことも	-10.0867
っていうと	-10.0868
とかだったら	-10.0872
末	-10.089
気を	-10.0903
買え	-10.0907
ところは	-10.0921
んやろ	-10.0924
んだけども	-10.0925
ければ	-10.0928
っと思って	-10.0929
理由	-10.0937
教授	-10.0937
記憶	-10.0937
レストラン	-10.0938
良	-10.0938
火曜日	-10.0938
オッケー	-10.0938
暇	-10.0938
邪魔	-10.0938
お兄ちゃん	-10.0938
よいしょ	-10.0938
始まって	-10.0938
芸	-10.0938
苦労	-10.0938
地下鉄	-10.0938
電池	-10.0938
自由	-10.0938
ッシュ	-10.0939
込む	-10.0939
言いながら	-10.0942
プラス	-10.0943
んかな	-10.0947
助手	-10.0948
何しろ	-10.0953
お酒	-10.0954
やめた	-10.0957
と思うんですけど	-10.0967
眠い	-10.0967
受ける	-10.0968
かったら	-10.0969
しないで	-10.0982
短	-10.0982
に入れて	-10.0984
上の	-10.1001
何だ	-10.1002
はっ	-10.1007
あれだよ	-10.1013
買ってきて	-10.1017
ですねー	-10.102
結婚した	-10.1021
送る	-10.1024
すごいねー	-10.1029
しな	-10.1034
の人に	-10.1038
走って	-10.1054
隣の	-10.1059
みたいなやつ	-10.106
っていったら	-10.1065
撮る	-10.1065
たときに	-10.107
もあって	-10.1075
はどう	-10.1078
があってー	-10.1083
はいはいはい	-10.1091
クリ	-10.1093
なると	-10.1096
探	-10.1111
んだけれど	-10.1114
んか	-10.1115
言うの	-10.1117
生まれた	-10.1123
受けて	-10.1124
としたら	-10.1126
その方が	-10.1127
気づ	-10.1138
んだけどさー	-10.1142
やったの	-10.1155
それだったら	-10.1156
ちゃんも	-10.1159
とり	-10.1162
あるでしょう	-10.1163
医	-10.1164
増	-10.1167
庭	-10.1168
演	-10.1168
段	-10.1168
修	-10.1168
それぞれ	-10.1169
影	-10.1169
位	-10.1169
脳	-10.1169
もらおう	-10.117
豆腐	-10.117
フォー	-10.117
等	-10.117
a	-10.117
すげー	-10.1171
こたつ	-10.1171
年齢	-10.1171
見つけ	-10.1172
喜んで	-10.1172
ぜひ	-10.1176
どっかで	-10.1177
のように	-10.1178
なよ	-10.1185
着物	-10.1186
エビ	-10.1194
今日の	-10.1196
2000	-10.12
そういうとこ	-10.1203
ないように	-10.1211
気持ち悪い	-10.1214
高く	-10.123
動か	-10.1235
ないんだよね	-10.1241
静か	-10.1244
でもまあ	-10.125
そういう人	-10.1254
どこか	-10.1262
見せて	-10.1264
そうかなー	-10.1264
チェック	-10.127
あのさ	-10.127
ーと思って	-10.1277
もさー	-10.1278
わからないけど	-10.1282
だと思って	-10.1288
特別	-10.1288
ショック	-10.1291
が来る	-10.1291
抜け	-10.1295
してね	-10.13
壊れ	-10.1305
ちら	-10.1316
プレ	-10.1323
るやつ	-10.1328
るでしょう	-10.1331
来たの	-10.1333
さんとか	-10.1333
っきり	-10.1335
決めて	-10.1336
ーみたいな	-10.1341
22	-10.1346
まちがえ	-10.1349
るんですか	-10.1351
行ったとき	-10.1352
上に	-10.1365
持ってくる	-10.137
って書いてある	-10.137
に来る	-10.1373
慣れて	-10.1384
仲	-10.1386
湯	-10.1388
以外	-10.1392
おいしく	-10.1396
90	-10.1397
混	-10.1397
クロ	-10.1403
接	-10.1406
格	-10.1407
装	-10.1407
すっごく	-10.1407
ページ	-10.1408
乾	-10.1408
そこら辺	-10.1408
危険	-10.1408
畳	-10.1408
チョコ	-10.1408
状況	-10.1409
紅茶	-10.1409
可能性	-10.1409
卒論	-10.1409
おなか	-10.141
ソース	-10.1413
ていうの	-10.1414
やから	-10.142
つぶれ	-10.1423
あーん	-10.1429
めっちゃ	-10.1433
にさー	-10.1433
バイ	-10.1437
って書いてあった	-10.1439
リンゴ	-10.1442
ないか	-10.1442
何だか	-10.1445
君の	-10.1448
たわけ	-10.1451
ぐらいしか	-10.1455
スター	-10.1462
んだろうけど	-10.1464
とかを	-10.1476
の方で	-10.148
ティー	-10.1492
今でも	-10.1498
ブルー	-10.1507
大変だった	-10.151
るのが	-10.1515
有名	-10.1516
次の日	-10.1532
だってさー	-10.1538
あかん	-10.1538
、12	-10.1539
あのねー	-10.1542
あったよ	-10.1548
の場合は	-10.1548
ごと	-10.1551
ちゃい	-10.1552
ーとか思って	-10.1553
よくわからない	-10.1559
やつが	-10.157
してたの	-10.1574
寝てる	-10.1576
ラブ	-10.1583
息子	-10.1583
違った	-10.1585
そのころ	-10.1586
と思ったけど	-10.1588
いいと思う	-10.1603
らず	-10.1612
まま	-10.1615
黒い	-10.1617
カバ	-10.1622
続けて	-10.1629
どっかに	-10.1635
すること	-10.1643
ファ	-10.1649
谷	-10.1651
骨	-10.1651
継	-10.1652
ヨ	-10.1652
年賀状	-10.1652
牛乳	-10.1652
しょっちゅう	-10.1653
直接	-10.1653
建物	-10.1653
学生が	-10.1653
さっきの	-10.1656
後期	-10.1657
どうすんの	-10.166
ょ	-10.1662
あったかい	-10.1664
いやあ	-10.1664
方向	-10.1669
だったのね	-10.167
お腹	-10.1679
地方	-10.1683
ステ	-10.1683
が来た	-10.1685
じゃないか	-10.1686
そうや	-10.1688
とこで	-10.1692
向こうに	-10.1693
立って	-10.1694
寄	-10.1701
言えば	-10.1708
張り	-10.1708
ときにー	-10.171
いいですか	-10.1718
生まれ	-10.1719
っといて	-10.1727
だったよね	-10.1729
空いて	-10.1732
だけは	-10.1734
好きで	-10.1746
ますから	-10.1748
ですけどね	-10.1754
そういうのを	-10.176
があれば	-10.1766
っていうから	-10.177
走	-10.1772
それまで	-10.1773
眠	-10.1789
わたしの	-10.179
夜中	-10.1791
何の	-10.1792
決まった	-10.1801
くん	-10.1802
落ちた	-10.1802
がいて	-10.1807
すぎて	-10.1811
中で	-10.1813
いいですよ	-10.1813
子どもの	-10.1818
話をして	-10.183
確かにね	-10.1836
んじゃう	-10.1837
なんだか	-10.1837
もんな	-10.1844
いいじゃない	-10.1846
なんかちょっと	-10.1849
こそ	-10.1851
たもん	-10.1857
思え	-10.1872
追	-10.1883
ノー	-10.1891
落ちて	-10.1893
ありがと	-10.1898
族	-10.19
造	-10.1901
ベッド	-10.1901
雨	-10.1901
しまって	-10.1902
非常に	-10.1902
共	-10.1902
あれっ	-10.1902
いただいて	-10.1902
勝	-10.1902
坊	-10.1902
貧	-10.1902
検索	-10.1902
ラジオ	-10.1902
結果	-10.1902
揚げ	-10.1902
羽	-10.1902
修士	-10.1903
岡山	-10.1903
神戸	-10.1903
時給	-10.1904
国語	-10.1906
ペン	-10.1907
コピー	-10.1907
150	-10.191
行っちゃう	-10.191
中級	-10.1911
っていうので	-10.1919
付き	-10.192
くさい	-10.1931
書いてあって	-10.1932
サー	-10.1934
一生	-10.1939
かける	-10.1942
その人は	-10.1945
ありません	-10.1947
去年の	-10.1972
どうかな	-10.1985
とさー	-10.1986
踊り	-10.1997
もないし	-10.1997
なんでしょう	-10.1999
の子が	-10.2008
壊	-10.201
聞いてない	-10.2013
んじゃなくて	-10.2023
やし	-10.2028
院生	-10.2033
書いてる	-10.2034
普通は	-10.2039
んねん	-10.2056
飲	-10.2067
出さ	-10.2069
手を	-10.2075
だったね	-10.2077
もらい	-10.2078
そうなんです	-10.2089
結局は	-10.209
の中の	-10.2093
いいのか	-10.2096
きてる	-10.2097
だめだよ	-10.2105
を作って	-10.2118
あるし	-10.2121
降り	-10.2131
いいわ	-10.2132
なと思った	-10.2133
雪が	-10.2133
が出て	-10.2138
晩	-10.2143
軽	-10.2144
っとか言って	-10.2146
いつか	-10.2148
っくり	-10.2149
計	-10.2157
窓	-10.2157
居	-10.2158
ぬ	-10.2158
板	-10.2158
o	-10.2158
た方がいい	-10.2158
めちゃくちゃ	-10.2158
隠	-10.2158
サークル	-10.2159
突然	-10.2159
こんにちは	-10.2159
堂	-10.2159
スーパー	-10.2159
公園	-10.2159
野球	-10.2159
ほーんと	-10.216
ミカン	-10.216
返事	-10.2161
移動	-10.2161
からさあ	-10.2162
働く	-10.2164
ポン	-10.2167
さらに	-10.217
ブー	-10.2172
このまま	-10.2173
そんとき	-10.2173
エン	-10.2173
選んで	-10.2173
たじゃん	-10.2187
立つ	-10.2192
笑い	-10.2202
がないから	-10.2203
みたいなこと	-10.2205
決ま	-10.2207
んなら	-10.2212
時間も	-10.2213
暮らし	-10.2214
そうだけど	-10.2217
買ったの	-10.222
録って	-10.2228
列	-10.2232
円とか	-10.224
あそこは	-10.2241
っていうのがあって	-10.2242
言っても	-10.2254
飼	-10.2257
いるわけ	-10.2265
こっちが	-10.2265
なんかそういう	-10.2274
実際に	-10.2279
赤ちゃん	-10.228
続け	-10.2282
なんの	-10.2285
作ってる	-10.2289
しま	-10.2292
なんかその	-10.2298
いいこと	-10.231
切る	-10.2312
におい	-10.2322
最近は	-10.2324
近くに	-10.2324
飲んだ	-10.2338
なんですよね	-10.2345
ちゃうの	-10.2349
日本語を	-10.235
テロ	-10.2358
の友達	-10.236
んけど	-10.2363
さい	-10.2364
リング	-10.2366
なかったよ	-10.2376
ハー	-10.2377
たか	-10.2379
って言ってる	-10.2382
やれ	-10.2392
ずら	-10.2397
取りに	-10.2399
替	-10.2399
な人	-10.2401
やつは	-10.2402
最	-10.2415
学科	-10.2417
我慢	-10.242
そうすっと	-10.242
気もする	-10.2421
ドラマ	-10.2422
刺	-10.2422
いっぺん	-10.2422
確認	-10.2422
ぎりぎり	-10.2422
藤	-10.2422
船	-10.2422
事故	-10.2422
それなりに	-10.2422
辞書	-10.2422
給料	-10.2422
何となく	-10.2422
止まって	-10.2422
兄弟	-10.2425
どうなの	-10.2425
つかない	-10.2427
パンダ	-10.2428
皆さん	-10.2433
そこが	-10.2434
大学は	-10.2438
だねー	-10.2439
前期	-10.244
まちがい	-10.2443
ガン	-10.2451
2、3	-10.2457
なくない	-10.2467
無理だ	-10.247
トン	-10.2471
入ってて	-10.2474
やり方	-10.2482
いっぱいいる	-10.2486
お肉	-10.2487
っしょ	-10.2493
なんだろ	-10.2494
もういい	-10.2495
いたから	-10.2499
勤め	-10.2501
ってのが	-10.251
と思います	-10.2512
えっとー	-10.2515
かっていうと	-10.2517
かえって	-10.2517
だからその	-10.2519
聞か	-10.2524
真ん中	-10.2527
もしない	-10.2534
かっこ	-10.2538
したけど	-10.2544
しょうがないから	-10.2547
でやる	-10.2549
仕事を	-10.2552
そら	-10.256
簡単に	-10.256
死んだ	-10.2564
ブリ	-10.2568
あんとき	-10.2569
もう少し	-10.2579
でさあ	-10.2585
してください	-10.2589
ったりとか	-10.2591
違うよ	-10.2594
グラ	-10.2595
るじゃん	-10.2604
と思わない	-10.261
んなって	-10.2617
ちゅ	-10.2617
、20	-10.2633
みたいね	-10.2634
ニコ	-10.2638
結婚して	-10.264
食って	-10.2641
人がいて	-10.2652
向こうは	-10.266
弱	-10.2661
わら	-10.268
遊	-10.2681
比べ	-10.2681
踏	-10.2686
筋	-10.269
参	-10.2692
ほんっとに	-10.2692
遣	-10.2692
塗	-10.2692
ここら辺	-10.2692
提	-10.2692
缶	-10.2692
NHK	-10.2692
アパート	-10.2692
評価	-10.2692
彼氏	-10.2692
t	-10.2692
図書館	-10.2692
お兄さん	-10.2692
ぷ	-10.2692
番組	-10.2693
参加	-10.2693
信じ	-10.2695
逃げ	-10.2696
すごかった	-10.2696
本を	-10.2698
見ても	-10.2698
っていうところ	-10.27
やす	-10.2703
っていうことは	-10.2705
ビル	-10.2706
あのころ	-10.2708
負け	-10.2708
バラ	-10.2709
別れ	-10.271
27	-10.2712
あれじゃない	-10.2724
かけた	-10.2725
やねん	-10.2727
やつを	-10.2731
もいいし	-10.2733
じゃんねー	-10.2738
合って	-10.2741
年目	-10.2742
たりして	-10.2745
さすがに	-10.2746
だろうと思って	-10.2748
簡単な	-10.2749
かなって	-10.2749
お母さんと	-10.2753
持ってない	-10.2754
立て	-10.2761
辺	-10.2761
それでー	-10.2768
簡単	-10.2768
だろうけど	-10.277
日間	-10.277
送り	-10.2774
それはもう	-10.2778
掛け	-10.2786
そのときは	-10.2787
の間	-10.2791
なあと思って	-10.2792
の前で	-10.2794
のにー	-10.2804
がついて	-10.2807
いくつか	-10.2809
るように	-10.281
遊び	-10.2826
コロ	-10.2828
ないのに	-10.283
きゃ	-10.2832
殺	-10.2843
色が	-10.2845
もあった	-10.2855
つな	-10.2865
なんや	-10.2868
とかいうの	-10.2871
大学に	-10.2872
お金を	-10.2874
んじゃないですか	-10.2879
のせい	-10.2885
微妙に	-10.2889
いくと	-10.2889
ゴー	-10.289
言ってて	-10.2894
テン	-10.2905
なかったっけ	-10.2907
ええー	-10.2908
言ってんの	-10.2925
はだめ	-10.2931
ふうに	-10.2933
ちゃいけない	-10.2934
はまだ	-10.2939
振	-10.2942
日が	-10.2942
ないんですよ	-10.2945
なさそう	-10.2948
るんですけど	-10.2949
大学で	-10.2949
酒	-10.2949
は別に	-10.2951
周	-10.2952
測	-10.2968
郎	-10.2969
客	-10.2969
コミュニケーション	-10.2969
塾	-10.2969
率	-10.297
駐車場	-10.297
ドイツ	-10.297
ドレス	-10.297
同級生	-10.297
093	-10.297
迷惑	-10.297
改	-10.297
−	-10.297
宿題	-10.297
最低	-10.297
吹	-10.297
始まる	-10.297
すご	-10.2971
幸せ	-10.2971
どちら	-10.2973
毎回	-10.2973
冷たい	-10.2974
5、6	-10.2978
それがね	-10.2989
人たちが	-10.299
あげた	-10.2991
トラ	-10.2995
日ぐらい	-10.3
食べてる	-10.3
ビー	-10.3002
もうすぐ	-10.3005
っていうのがある	-10.3007
したから	-10.3009
換え	-10.3009
なかったんだけど	-10.3018
変える	-10.3022
私なんか	-10.3022
どっちが	-10.303
そういうとき	-10.3031
を入れて	-10.3032
のとこに	-10.3033
みたいなのが	-10.3035
撮った	-10.3037
があったの	-10.3038
マック	-10.3041
まじ	-10.3044
をさ	-10.3045
よくわかんないけど	-10.3045
行ったり	-10.3048
うー	-10.3052
だんなさん	-10.3054
方で	-10.3055
その前に	-10.3056
何それ	-10.3067
バック	-10.3071
続	-10.3072
しながら	-10.309
ようなこと	-10.3091
こともある	-10.3092
思ったけど	-10.3097
ほんとにー	-10.31
に近い	-10.3109
っていうことで	-10.3112
歩き	-10.3112
全然わかんない	-10.3114
貸して	-10.3117
日本人の	-10.3118
だけどさ	-10.3119
そしたらね	-10.3123
の研究	-10.3124
みたいなことを	-10.3126
一回	-10.313
っていう人	-10.3138
やっても	-10.3147
言葉を	-10.3167
お母さんに	-10.3167
いち	-10.3168
トロ	-10.3171
主人	-10.3172
っぽく	-10.3176
なんない	-10.318
あそこで	-10.3184
やってるの	-10.3186
食べれる	-10.3192
って言ってて	-10.3193
人を	-10.3195
しゃべってる	-10.3195
を買って	-10.3197
なにか	-10.3202
声が	-10.3209
ときにさ	-10.3218
連れてって	-10.3226
わけだから	-10.3229
ようと	-10.3232
つつ	-10.3234
呼	-10.3242
今週	-10.3243
もうなんか	-10.3244
一番最初	-10.3247
なるほどねー	-10.3248
ったって	-10.3251
団	-10.3252
飯	-10.3252
過	-10.3254
務	-10.3254
洋	-10.3255
問	-10.3255
テーブル	-10.3255
鉄	-10.3255
想像	-10.3255
ホーム	-10.3255
カナダ	-10.3255
ツアー	-10.3255
草	-10.3255
肌	-10.3255
総	-10.3255
賞	-10.3255
知り合い	-10.3256
木曜日	-10.3256
王	-10.3256
敷	-10.3256
補	-10.3256
オペラ	-10.3256
〜	-10.3256
拾	-10.3256
相談	-10.3256
階段	-10.3256
文句	-10.3256
相当	-10.3257
性格	-10.3257
集まって	-10.3258
057	-10.3258
体育	-10.3258
市に居住	-10.3258
不安	-10.3259
ベル	-10.326
安心	-10.326
仲間	-10.3261
付いて	-10.3262
万ぐらい	-10.3266
だけどさー	-10.3268
してもらって	-10.3274
まじめ	-10.3274
ちゃってさ	-10.3277
何回	-10.3281
現実	-10.3282
いると	-10.3287
そのまんま	-10.3288
そこへ	-10.3291
何ていう	-10.3297
どうだった	-10.3298
が入ってる	-10.3301
いる人	-10.3302
ある意味	-10.3303
最後まで	-10.3306
んでー	-10.3315
とは思う	-10.3321
くださいって	-10.3321
3000	-10.3322
とか思った	-10.333
いうふうに	-10.3336
ないとだめ	-10.3336
いろいろある	-10.3337
時間に	-10.3342
その日	-10.3345
通る	-10.335
考えた	-10.3352
使い方	-10.3355
じゃないや	-10.3356
ぐらいまで	-10.3356
るとか	-10.3359
でしょうね	-10.336
方に	-10.337
住んでる	-10.337
見た目	-10.3378
ピッ	-10.3385
いいのよ	-10.3386
彼が	-10.3389
すぐに	-10.3391
しゃべった	-10.3393
わかるけど	-10.3395
あほ	-10.3397
お水	-10.34
ります	-10.3404
勢い	-10.3408
まで行って	-10.341
こっちは	-10.3411
ますね	-10.3414
くなってきた	-10.3417
買ってきた	-10.342
悪かった	-10.3423
とか言ったら	-10.3429
あったんだけど	-10.3429
いろんなこと	-10.3429
した方がいい	-10.3429
変わ	-10.343
その前	-10.3439
今年の	-10.344
にしろ	-10.3441
手が	-10.3443
どうしたの	-10.3447
が多いから	-10.3447
たった	-10.3453
いいです	-10.3455
まち	-10.3456
とか言ってさ	-10.3459
いじ	-10.3461
できるの	-10.3461
まだまだ	-10.3466
切った	-10.347
なくなっちゃう	-10.3471
きました	-10.3478
やってんの	-10.3483
何十	-10.3483
好きだった	-10.3484
女の	-10.3484
というのが	-10.3484
意外	-10.3484
後ろに	-10.3486
友達に	-10.349
まん	-10.3496
そうかもしれない	-10.3519
覚	-10.3525
なくちゃいけない	-10.3529
老	-10.3529
あったけど	-10.3535
飾	-10.3536
並	-10.3538
ている	-10.3538
をやる	-10.354
たっけ	-10.3543
ミルク	-10.3544
版	-10.3544
孫	-10.3545
全体	-10.3546
菜	-10.3546
しといて	-10.3547
カメラ	-10.3548
角	-10.3549
恐	-10.3549
鍋	-10.3549
波	-10.3549
脱	-10.3549
なるべく	-10.3549
お医者さん	-10.355
買おう	-10.355
柄	-10.355
子さん	-10.355
すべて	-10.355
多少	-10.355
こっから	-10.3551
新宿	-10.3551
ありえない	-10.3552
ゼロ	-10.3553
ひょ	-10.3553
になったの	-10.3553
頼む	-10.3554
おじいちゃん	-10.3557
そうだと思う	-10.356
年末	-10.3561
状態で	-10.3561
お姉さん	-10.3563
物語	-10.3566
有名な	-10.357
番目	-10.3574
時とか	-10.3575
できます	-10.3575
あの人は	-10.3579
しちゃ	-10.3583
最初から	-10.3585
ラス	-10.3585
世の中	-10.3587
ったりする	-10.3589
そういう意味	-10.3598
君は	-10.3609
いえいえ	-10.3612
何回も	-10.3614
持つ	-10.3615
させる	-10.3618
思わない	-10.362
流れ	-10.3622
仕事が	-10.3624
おり	-10.3634
太い	-10.3636
っていっても	-10.3637
してきた	-10.3647
じゃないかな	-10.3652
ってさあ	-10.3654
あれだけど	-10.3663
着く	-10.3663
失敗	-10.3679
しまい	-10.368
世	-10.3689
になるから	-10.3691
欲	-10.3707
写真を	-10.3712
住んでた	-10.3714
決まってる	-10.3714
来るから	-10.3716
きたの	-10.3718
使え	-10.3723
っちゃいけない	-10.3724
次は	-10.373
ましたね	-10.3731
掛けて	-10.3736
なーん	-10.3743
部屋に	-10.3743
45	-10.3747
直し	-10.3754
周りの	-10.3771
深	-10.378
おもしろく	-10.3794
気をつけ	-10.3795
しなきゃ	-10.3801
るのかな	-10.3806
教えてる	-10.3806
話は	-10.3811
えば	-10.3812
ぶら	-10.3816
変わってる	-10.3821
だい	-10.3828
のような	-10.3845
謝	-10.385
視	-10.3851
構	-10.3852
支	-10.3852
メートル	-10.3852
友	-10.3852
中途半端	-10.3853
券	-10.3853
ウナギ	-10.3853
免許	-10.3853
かもしれません	-10.3853
秒	-10.3853
懐かしい	-10.3853
ジャン	-10.3853
髪の毛	-10.3853
スカート	-10.3853
時点で	-10.3853
稼	-10.3853
納得	-10.3853
キャンプ	-10.3853
わかりました	-10.3853
新幹線	-10.3853
地域	-10.3853
タクシー	-10.3853
電話番号	-10.3853
文章	-10.3854
予約	-10.3854
うっそ	-10.3854
案外	-10.3854
家庭	-10.3856
打ち	-10.3856
バイク	-10.3858
ハリー	-10.3858
行動	-10.3858
やつで	-10.3862
地名	-10.3864
濃い	-10.3869
にとっては	-10.387
お母さんの	-10.3874
死んで	-10.3879
になります	-10.388
あっても	-10.3884
ほいて	-10.3884
変えた	-10.3891
あとに	-10.3894
考えたら	-10.3894
かかって	-10.3897
今も	-10.3902
いらん	-10.3902
週間ぐらい	-10.391
わりに	-10.3915
るもん	-10.3916
1、2、3	-10.3918
何て	-10.3923
だったと思う	-10.3927
怒って	-10.3928
作れ	-10.3933
んだけれども	-10.394
人生	-10.3947
へ行って	-10.395
話してる	-10.3951
行ったことある	-10.3955
向け	-10.3956
ものすごく	-10.3957
読め	-10.3971
に住んでる	-10.3974
にしようかな	-10.3979
食べるの	-10.3987
そうじゃなくて	-10.3989
部活	-10.3989
働いてる	-10.3991
パッと	-10.3993
あるわけ	-10.4008
確	-10.4014
って言うと	-10.4017
替えて	-10.4019
昨日の	-10.4024
微妙な	-10.4031
調べ	-10.4035
っす	-10.4046
ですもんね	-10.4047
いいのに	-10.4048
好きなんだ	-10.4052
学部の	-10.4057
なーって	-10.4065
そんなことないよ	-10.4069
せば	-10.4075
ありますね	-10.4078
つもりで	-10.408
だっていう	-10.409
おもしろいね	-10.4105
分の	-10.4107
だめだった	-10.4108
苦	-10.4115
勉強する	-10.4116
車が	-10.4116
私はね	-10.412
遅	-10.4124
ところを	-10.4126
目の	-10.4147
バリ	-10.4147
ちゃったの	-10.4153
なっちゃって	-10.4156
そりゃあ	-10.4157
食べてた	-10.4157
ゼ	-10.4161
帳	-10.4161
いたい	-10.4163
牛	-10.4164
統	-10.4164
ちょうだい	-10.4165
布	-10.4165
博士	-10.4165
眼鏡	-10.4165
デザート	-10.4165
098	-10.4165
歳ぐらい	-10.4165
すみません	-10.4165
臭	-10.4165
チョコレート	-10.4165
悩	-10.4165
すげえ	-10.4165
観光	-10.4165
愛知県	-10.4166
感覚	-10.4167
文字化	-10.4167
医者	-10.4167
でっかい	-10.4168
おばちゃん	-10.4169
アルバイト	-10.417
漢方	-10.4171
ないんだって	-10.4171
015	-10.4174
飲み会	-10.4177
どうしよ	-10.4178
聞かない	-10.418
サイ	-10.4181
見たことない	-10.4186
すばらしい	-10.4187
完全に	-10.4187
何て言う	-10.4195
年で	-10.42
締め	-10.421
やっ	-10.421
んですけれども	-10.4211
おでん	-10.4212
何時	-10.4223
どのぐらい	-10.4228
それか	-10.423
08	-10.4234
って言ったの	-10.4236
意外と	-10.4241
まちがえた	-10.4244
わからんけど	-10.4248
建て	-10.4248
年も	-10.4251
いつまで	-10.4255
取れない	-10.4258
か知らないけど	-10.4264
上げて	-10.427
帰れ	-10.4271
ないもんね	-10.4278
の違い	-10.4295
落とし	-10.4299
の辺	-10.43
わけですよ	-10.4303
4、5	-10.4307
こっちの方が	-10.4314
たよね	-10.4315
色の	-10.432
別の	-10.4324
でもさあ	-10.4332
知らんけど	-10.4338
なんだけどね	-10.4349
私さー	-10.4351
生きてる	-10.4365
決	-10.4375
はいて	-10.4378
とこは	-10.438
なんていうのかな	-10.438
バスで	-10.438
彼女は	-10.4382
っていうかさ	-10.4396
あるある	-10.4397
しょう	-10.4397
28	-10.4398
結婚する	-10.44
とかさあ	-10.4402
そういうもの	-10.4403
かなんかで	-10.4419
んですかね	-10.4419
プラ	-10.4422
ックス	-10.4422
汚	-10.4424
だったか	-10.443
ですねえ	-10.4433
年後	-10.4435
があったから	-10.4437
学年	-10.4449
楽しそう	-10.4451
聞くと	-10.4457
ないですよね	-10.446
フランス人	-10.4461
そのうち	-10.4481
崎	-10.4484
編	-10.4486
放	-10.4487
養	-10.4487
密	-10.4487
ソフト	-10.4488
キャベツ	-10.4488
テキスト	-10.4488
モデル	-10.4488
ポッター	-10.4488
夫婦	-10.4488
模	-10.4488
カンツオーネ	-10.4488
研修	-10.4488
紅葉	-10.4488
ボランティア	-10.4488
動物園	-10.4488
大きさ	-10.4489
東急	-10.4489
安全	-10.4489
単語	-10.449
細かい	-10.449
登録	-10.4491
冬休み	-10.4492
いただきます	-10.4492
ゴム	-10.4493
ぱっと	-10.4496
混んで	-10.4496
きゅ	-10.4499
ハイ	-10.4501
ボン	-10.4501
気になる	-10.4505
シーン	-10.4505
こりゃ	-10.4508
入れるの	-10.4509
見ながら	-10.4509
だと思うよ	-10.451
あんなに	-10.451
来たとき	-10.4511
遊んで	-10.4515
お湯	-10.4516
を使って	-10.4517
国立	-10.4525
チン	-10.4528
ドア	-10.4531
何歳	-10.4535
向か	-10.4561
らしいのね	-10.4562
笑って	-10.4562
んやんか	-10.4563
言っとった	-10.4568
ぶり	-10.4575
わよね	-10.4582
あるじゃない	-10.459
もうそろそろ	-10.4591
かれて	-10.4593
のときの	-10.4594
人数	-10.4602
があったら	-10.4603
みれば	-10.4605
に入った	-10.4611
ずれ	-10.4631
届	-10.4631
29	-10.4639
そりゃそう	-10.464
作るの	-10.4641
すか	-10.4642
残る	-10.4643
はいはいはいはい	-10.4646
育て	-10.4646
に行ったの	-10.4649
要は	-10.4654
アメリカ人	-10.4654
ここが	-10.4656
出してる	-10.4659
りたい	-10.4659
食う	-10.4672
大変だよね	-10.4681
なんだから	-10.4682
いろいろと	-10.4684
方は	-10.4687
なーんか	-10.4688
どこまで	-10.4688
あんなん	-10.469
しとった	-10.4698
たのよ	-10.4702
朝から	-10.4716
終	-10.4717
ができた	-10.4719
取られる	-10.4722
学校に	-10.4724
おいしいよ	-10.4733
てか	-10.4735
そうなんだよね	-10.4739
単	-10.4744
みたいだけど	-10.4756
トル	-10.476
ゃ	-10.4762
したんだけど	-10.4772
引っ越し	-10.4787
あるかな	-10.4805
だれに	-10.4805
程度	-10.4805
さんて	-10.4806
会社に	-10.4812
図	-10.4818
命	-10.4819
万とか	-10.4819
勘	-10.482
他	-10.482
豊	-10.482
秘	-10.482
ロンドン	-10.482
検	-10.4821
規	-10.4821
午前中	-10.4821
ショップ	-10.4821
ヨーロッパ	-10.4821
郵便局	-10.4821
傷	-10.4821
原因	-10.4821
さみしい	-10.4821
輪	-10.4821
沢	-10.4821
展	-10.4821
滑	-10.4821
将来	-10.4822
葉っぱ	-10.4822
似合う	-10.4822
しょうゆ	-10.4823
マンション	-10.4823
名前が	-10.4823
変わらない	-10.4823
ぐらいかな	-10.4824
東海	-10.4824
立場	-10.4826
感動	-10.4826
選ぶ	-10.4826
映画館	-10.4826
はじめ	-10.4827
受けた	-10.4828
あまりにも	-10.4829
手作り	-10.483
韓国語	-10.483
飲み物	-10.483
お風呂	-10.4831
国内	-10.4832
手紙	-10.4834
両親	-10.4834
コマ	-10.4843
きれ	-10.4848
おもち	-10.4853
すし	-10.4857
都	-10.4859
薄い	-10.4859
書け	-10.4859
食べよう	-10.486
弱い	-10.486
自分に	-10.4864
何ていうのかな	-10.4869
の方の	-10.4879
ですからね	-10.4879
こういうこと	-10.488
日本は	-10.4884
天気	-10.489
まんま	-10.489
見えて	-10.489
持ってきた	-10.4892
危	-10.4897
半年	-10.4899
微妙だ	-10.4901
ジュ	-10.4904
込ま	-10.4907
なくってー	-10.491
電車で	-10.4918
始めて	-10.4922
学生に	-10.4932
違う違う違う	-10.494
に入ってる	-10.4943
ときとか	-10.4948
あるでしょ	-10.4948
持ってく	-10.4948
世話	-10.4951
下りて	-10.4955
見てたら	-10.4959
ってか	-10.4962
かもしれんけど	-10.4976
んやね	-10.4977
友達と	-10.4978
違うんだ	-10.4988
自体が	-10.4998
見てると	-10.5001
の間に	-10.5006
においが	-10.5014
どうなる	-10.5016
どうしようかな	-10.5018
してくる	-10.5019
そこを	-10.5025
ですよねー	-10.5038
いうと	-10.504
なわけ	-10.5051
しなかった	-10.506
送った	-10.5063
ていうのは	-10.5068
もち	-10.5071
いき	-10.5072
まく	-10.5078
ひと	-10.508
やればいい	-10.508
なぜ	-10.508
とか言ってて	-10.508
しかもさ	-10.5081
全然知らない	-10.5086
してます	-10.5106
来たら	-10.5109
フランスに	-10.5117
ピン	-10.5121
速	-10.5128
目に	-10.5129
まれ	-10.513
に行くの	-10.5143
あなたは	-10.5145
大変だね	-10.5148
もいいけど	-10.5152
付けて	-10.5153
子たち	-10.5154
能	-10.5159
四	-10.5162
具	-10.5163
ロン	-10.5164
整	-10.5164
八	-10.5165
給	-10.5165
バルチス	-10.5165
軒	-10.5165
達	-10.5165
いちいち	-10.5165
2〜3	-10.5165
きちんと	-10.5165
ストーリー	-10.5166
渋	-10.5166
サービス	-10.5166
官	-10.5166
騒	-10.5166
盗	-10.5166
弾	-10.5166
毎週	-10.5166
夫	-10.5166
031	-10.5166
スープ	-10.5166
プレゼント	-10.5166
栗	-10.5166
始まった	-10.5166
担当	-10.5166
計画	-10.5167
当然	-10.5167
注文	-10.5167
パーティー	-10.5167
理解	-10.5168
増えた	-10.5168
近所	-10.5168
先週	-10.5168
遊ぶ	-10.5169
足りない	-10.5169
キュ	-10.517
人だけ	-10.5171
思うんだけど	-10.5172
待ち	-10.5172
向こうも	-10.5173
しろ	-10.5174
休む	-10.5175
ノン	-10.5175
ベン	-10.5177
だけども	-10.5178
数学	-10.5178
しねー	-10.5182
そうなんや	-10.5185
言ってくれ	-10.5187
分野	-10.5188
文学部	-10.5188
ちょうどいい	-10.519
021	-10.5192
ゅ	-10.5198
割り	-10.5203
そういうのも	-10.5203
のり	-10.5204
ようになって	-10.5204
なんて言う	-10.5217
やられた	-10.5223
人だったら	-10.5225
やってくれ	-10.5226
とかなんとか	-10.5227
ちょっ	-10.5228
どうするの	-10.5234
地下	-10.524
せい	-10.5241
何気に	-10.5243
これね	-10.5244
あると思う	-10.5246
ると思う	-10.525
しなさい	-10.5251
私立	-10.5253
いいかなー	-10.5256
ようにして	-10.5257
正月	-10.526
使ってた	-10.5265
いるよ	-10.5268
の人と	-10.527
言うけど	-10.5273
期間	-10.5279
の人とか	-10.5282
ハッ	-10.5289
にゃ	-10.529
あーあーあー	-10.529
っていう意味	-10.5293
あたしたち	-10.5296
ぐらいは	-10.5297
聞かせ	-10.5301
ありそう	-10.5301
のかもしれないけど	-10.5307
だろうし	-10.5317
うつ	-10.5317
ん中で	-10.5319
300	-10.5331
楽しく	-10.5331
自分は	-10.5338
りました	-10.5341
走る	-10.5345
すごいいい	-10.5347
ないのよ	-10.5351
今日も	-10.5363
作ったの	-10.5365
だしね	-10.5366
ということで	-10.5375
とは違う	-10.5378
思っちゃった	-10.5379
あるんじゃない	-10.5385
メールで	-10.5386
いらした	-10.5389
キー	-10.5396
と言えば	-10.54
いいかもしれない	-10.5403
やる気	-10.541
かわからん	-10.5411
はあるけど	-10.5411
おいし	-10.5416
そういうのって	-10.5418
くわ	-10.542
手前	-10.5422
おった	-10.5425
ましたけど	-10.5426
そうなんですよ	-10.5429
かわからない	-10.5431
知らないよ	-10.5435
待ってる	-10.5435
ないのね	-10.5437
とか何とか	-10.5437
本人	-10.5439
その日に	-10.544
できなかった	-10.5451
りすると	-10.5458
おっしゃ	-10.546
授業が	-10.5461
に行ったら	-10.5463
見かけ	-10.5468
スポーツ	-10.5475
うるさいな	-10.5478
んですけれど	-10.5479
おもしろ	-10.549
助け	-10.55
を使う	-10.5504
われて	-10.551
ぺ	-10.5515
州	-10.552
極	-10.5521
材	-10.5522
泊まり	-10.5522
卒	-10.5522
お勧め	-10.5522
派	-10.5522
環境	-10.5522
節	-10.5522
散	-10.5523
杯	-10.5523
ジュース	-10.5523
胃	-10.5523
オレンジ	-10.5523
キムチ	-10.5523
江	-10.5523
散歩	-10.5523
講師	-10.5523
条件	-10.5523
札	-10.5523
マレーシア	-10.5523
ウィ	-10.5523
資格	-10.5523
いまいち	-10.5524
自身	-10.5524
笑える	-10.5524
アジア	-10.5524
洋服	-10.5524
在住	-10.5524
反応	-10.5524
そんだけ	-10.5526
むしろ	-10.5526
道路	-10.5526
モード	-10.5527
そうなのよ	-10.5528
ダンス	-10.553
コート	-10.5531
じょ	-10.5532
ミニ	-10.5533
わかってない	-10.5536
これとこれ	-10.5539
研究室	-10.5539
なんて言って	-10.5543
言ってたよ	-10.555
苦し	-10.555
カン	-10.5553
言語学	-10.5553
トム	-10.5554
マル	-10.5559
んだな	-10.556
自転車で	-10.5568
やもん	-10.557
109	-10.5575
たくさんある	-10.5576
わけじゃん	-10.5576
こい	-10.5582
に行くと	-10.5593
よくわからん	-10.5599
ったんだけど	-10.5603
何人か	-10.562
書くの	-10.5633
込	-10.5634
そっちの方が	-10.5639
直して	-10.5646
グル	-10.5647
じゃないよね	-10.5658
いいよねー	-10.5658
ときって	-10.5662
来てくれ	-10.5663
多く	-10.5664
始め	-10.5671
114	-10.5677
分けて	-10.5683
むだ	-10.569
なんじゃないの	-10.5701
っていった	-10.5702
一人で	-10.5714
モー	-10.5717
増えて	-10.5719
怖	-10.5721
ライト	-10.5721
上から	-10.5722
なんでそんな	-10.5733
したりとか	-10.5734
変えて	-10.5739
合わ	-10.5743
だめなんだ	-10.5753
おかしく	-10.5755
ようになる	-10.5762
行ったときに	-10.5769
らなきゃいけない	-10.577
気になって	-10.5782
はーん	-10.5784
せない	-10.5785
その子は	-10.5786
返し	-10.5789
言うんだ	-10.58
出さない	-10.5803
を見る	-10.5807
勉強した	-10.5814
取ってる	-10.5818
離れて	-10.5824
いいかも	-10.5829
かわかんないけど	-10.5829
さすが	-10.583
いっか	-10.5832
一番上	-10.5837
だと思うんだけど	-10.5853
使えない	-10.5856
だなあ	-10.5857
に行ったとき	-10.5862
死ぬ	-10.5865
開いて	-10.5871
来るの	-10.5871
寒く	-10.5872
の木	-10.5873
とかって言ってた	-10.5874
喜	-10.5885
痛くな	-10.5886
できれば	-10.5887
際	-10.5888
地元	-10.5889
講	-10.5889
然	-10.589
説	-10.589
放題	-10.589
有	-10.5891
畑	-10.5891
局	-10.5891
テニス	-10.5891
類	-10.5891
ご存じ	-10.5892
劇	-10.5892
京	-10.5892
があるわけ	-10.5892
九州	-10.5893
汁	-10.5893
備	-10.5893
記念	-10.5893
ヌ	-10.5893
クリーム	-10.5893
包	-10.5893
省	-10.5893
星	-10.5893
ハワイ	-10.5893
032	-10.5894
たこ焼き	-10.5894
あきらめ	-10.5894
奈良	-10.5894
計算	-10.5894
ありがとうございました	-10.5894
注意	-10.5894
渋谷	-10.5894
つまり	-10.5894
教材	-10.5894
機能	-10.5895
標準語	-10.5895
向	-10.5895
対応	-10.5895
面接	-10.5895
得意	-10.5895
ボタン	-10.5896
指定	-10.5897
演習	-10.5897
会議	-10.5897
ネット	-10.59
スタート	-10.59
メモ	-10.59
東北	-10.5901
茶色	-10.5902
男性	-10.5903
親切	-10.5903
どっちでもいい	-10.5906
と思うから	-10.5906
向こうが	-10.5906
もしもし	-10.5906
カニ	-10.5907
泊まって	-10.5907
どういう意味	-10.5908
の方から	-10.591
フリー	-10.5912
オン	-10.5912
低い	-10.5914
に関して	-10.5916
26	-10.592
でございます	-10.592
追い	-10.5922
に行ったときに	-10.5925
考え方	-10.5928
適当に	-10.5929
体力	-10.5929
の方も	-10.5933
休んで	-10.594
頼んだ	-10.5943
行かなかった	-10.5947
ソー	-10.5953
ないんじゃない	-10.5956
まあいいや	-10.5962
生まれて	-10.5971
中心	-10.5972
こいつ	-10.5975
だよねえ	-10.5976
してたら	-10.5977
だれでも	-10.5979
知ってた	-10.5981
人が多い	-10.5986
おもしろいの	-10.5988
お母さんは	-10.5992
そっちに	-10.5995
出せ	-10.5996
卒業して	-10.5999
いいですよね	-10.5999
大きいの	-10.6
乗ってる	-10.6004
横に	-10.6009
みたいなところ	-10.6009
それじゃ	-10.6013
なんじゃない	-10.6015
こっちから	-10.6023
過ぎて	-10.6024
授業は	-10.6039
そんときに	-10.604
お父さんは	-10.6041
あったから	-10.6041
言ったの	-10.6045
するじゃん	-10.6053
どうでもいい	-10.6064
してたから	-10.6064
しよっか	-10.6068
怒る	-10.6071
行ったんだけど	-10.6073
飲まない	-10.6089
かわいいよね	-10.6091
京都に	-10.6096
やっとる	-10.6098
撮り	-10.6109
16	-10.6111
思うけど	-10.6115
そうだっけ	-10.6119
ん中	-10.6124
降る	-10.6124
ができて	-10.6125
終わってから	-10.613
わん	-10.6141
そっから	-10.6142
勤	-10.6155
暗	-10.6157
あるんですか	-10.6159
授業を	-10.6164
いい感じ	-10.6168
ん中に	-10.617
いいよー	-10.6176
とかだと	-10.6179
お母さんも	-10.618
いろんな人	-10.6184
書けない	-10.6199
その前の	-10.62
06	-10.6208
電話した	-10.6214
なのよね	-10.6215
英	-10.6223
げる	-10.623
あんまし	-10.6244
大丈夫だよ	-10.6249
イズ	-10.6251
息	-10.6255
いいけどさ	-10.6263
辞めた	-10.6264
降った	-10.6265
言ってたよね	-10.6272
行ったこと	-10.6274
試	-10.6275
港	-10.6276
在	-10.6277
経	-10.6277
税	-10.6277
保険	-10.6277
プロジェクト	-10.6277
報	-10.6277
順	-10.6277
撃	-10.6278
努力	-10.6278
お土産	-10.6278
風邪	-10.6278
桜	-10.6278
どうのこうの	-10.6278
悔	-10.6278
豆	-10.6278
酢	-10.6278
)	-10.6278
領	-10.6278
きょう	-10.6278
界	-10.6278
賢	-10.6278
アクセント	-10.6278
ニュージーランド	-10.6278
すーごい	-10.6278
033	-10.6278
河	-10.6278
ロシア	-10.6278
美術館	-10.6278
おしゃれ	-10.6278
幼稚園	-10.6278
講義	-10.6278
**	-10.6278
梅	-10.6278
面倒くさい	-10.6278
必死	-10.6278
営業	-10.6279
片づけ	-10.6279
管理	-10.6279
んだろうって	-10.6279
掛かる	-10.6279
定義	-10.6279
小説	-10.628
地図	-10.628
髪型	-10.628
世代	-10.6281
三重	-10.6282
いただいた	-10.6283
なんですね	-10.6283
与え	-10.6284
新しく	-10.6285
分かれて	-10.6286
市内	-10.6286
だらけ	-10.6288
ダン	-10.6288
投げ	-10.629
ボール	-10.6292
悲しい	-10.6293
リスト	-10.6298
それ以外	-10.6305
それはある	-10.6312
速い	-10.6318
終わったら	-10.6319
われる	-10.6324
よくなる	-10.6325
韓国人	-10.6334
やめる	-10.6335
128	-10.6339
もらえない	-10.634
おいしくない	-10.6346
よっか	-10.6347
声で	-10.6347
なくちゃ	-10.6348
いくの	-10.635
もんねー	-10.6361
そうやね	-10.638
しょうが	-10.6385
1、2	-10.6385
できないから	-10.6386
困った	-10.6396
わけじゃないけど	-10.6399
友だちが	-10.641
に書いて	-10.6416
もらうの	-10.6423
落ちる	-10.6423
みたいよ	-10.6424
遅れて	-10.6431
くじ	-10.6438
覚える	-10.6449
着いた	-10.645
はしない	-10.645
いったい	-10.6453
日まで	-10.6455
用意	-10.6489
と思うと	-10.6489
日本人は	-10.6491
が出てきて	-10.6492
してほしい	-10.6501
たまには	-10.6514
名前を	-10.6516
やっぱし	-10.6524
覚えてないけど	-10.6525
ちゃんとした	-10.6529
か何かで	-10.6533
したくない	-10.6538
みたいなとこ	-10.6539
集め	-10.654
やってるから	-10.6541
にいるとき	-10.6542
っていうやつ	-10.6546
変わり	-10.655
行くとき	-10.6558
例の	-10.656
悪いけど	-10.6564
時ぐらいに	-10.6565
やれば	-10.657
だら	-10.6571
を取る	-10.6574
05	-10.6577
難しく	-10.6579
気持ち悪	-10.658
巻	-10.658
居住	-10.6582
好きだよ	-10.6584
があるんだけど	-10.659
思ったんだけど	-10.6592
になってて	-10.6604
久しぶり	-10.661
げん	-10.6612
入っている	-10.663
その子が	-10.663
できるから	-10.6635
子どもに	-10.6639
恥ずかし	-10.6648
をつけて	-10.6648
厚	-10.6651
できたら	-10.6652
なきゃだめ	-10.6655
低	-10.6655
新しいの	-10.6665
話しかけ	-10.6668
飲んでる	-10.6669
働か	-10.6673
針	-10.6674
案	-10.6674
議	-10.6674
義	-10.6676
ことになって	-10.6676
申	-10.6676
比	-10.6676
精神	-10.6677
舞	-10.6677
教師	-10.6677
映	-10.6677
隊	-10.6677
よろしく	-10.6678
圧	-10.6678
富	-10.6678
汗	-10.6678
権	-10.6678
副	-10.6678
黙	-10.6678
スパゲティ	-10.6678
吉	-10.6678
づらい	-10.6678
システム	-10.6678
クルーズ	-10.6678
034	-10.6678
報告	-10.6678
ドコモ	-10.6678
幅	-10.6678
037	-10.6678
おやじ	-10.6678
サッカー	-10.6678
キノコ	-10.6678
浜松	-10.6678
ありがたい	-10.6678
さんざん	-10.6678
ナポリ	-10.6678
au	-10.6679
我々	-10.6679
筆	-10.6679
失礼します	-10.668
セン	-10.668
チケット	-10.668
最高	-10.6681
趣味	-10.6681
みると	-10.6682
高級	-10.6682
聞いたことある	-10.6684
タイム	-10.6684
業者	-10.6684
っていうのもある	-10.6686
体重	-10.6686
嫌だな	-10.6686
お宅	-10.6687
パック	-10.6687
工学部	-10.6692
思ってない	-10.6693
機会	-10.6693
っつったら	-10.6695
貸し	-10.6703
帰ったら	-10.6704
ありますよ	-10.6706
集中	-10.6707
書いてない	-10.671
つぶし	-10.671
お寺	-10.6719
めちゃ	-10.6723
僕の	-10.6728
書かない	-10.6728
父親	-10.6729
こともない	-10.6731
英文	-10.6732
聞かれ	-10.6739
おもしろそう	-10.674
この人は	-10.6746
科目	-10.6749
もらったの	-10.6749
何回か	-10.6749
買わない	-10.6751
うちから	-10.6752
おいしいよね	-10.6758
出てて	-10.6759
焼け	-10.6762
入れたら	-10.6762
おうち	-10.6765
先生の授業	-10.6767
降りて	-10.6768
お元気	-10.6771
だけじゃない	-10.6779
曲がって	-10.6781
歌手	-10.6784
だれだれ	-10.6789
申し訳ない	-10.6791
僕が	-10.6797
暗い	-10.68
終わったあと	-10.6805
フランスで	-10.6818
書こう	-10.6819
を取って	-10.6822
バスが	-10.6826
必要ない	-10.6826
どうなん	-10.6838
あるのね	-10.6844
バッ	-10.6849
入学	-10.6853
だめです	-10.6853
彼女が	-10.6865
いるけど	-10.6866
人だと	-10.6868
なぜか	-10.687
パーマ	-10.6873
入ってんの	-10.6876
がついてる	-10.6876
ったりして	-10.688
やっている	-10.6887
頑張ってる	-10.6894
言うから	-10.6902
好きだから	-10.6905
食べられない	-10.6908
前の日	-10.6909
んでしょうか	-10.6914
私たちは	-10.6917
何もない	-10.6919
大した	-10.6924
あれだよね	-10.693
歌い	-10.6935
ませんか	-10.6936
らへん	-10.6937
女の子が	-10.6943
会話を	-10.6944
してもらった	-10.6945
もしょうがない	-10.6946
力が	-10.6954
やたら	-10.6955
今回は	-10.6958
いたんだけど	-10.696
ばれ	-10.6961
行きます	-10.6961
かなんかに	-10.6962
を作る	-10.6968
曲が	-10.697
明日は	-10.6974
子どもは	-10.6977
の話を	-10.6977
どっちも	-10.6983
いたけど	-10.6987
って言わない	-10.6987
受か	-10.6989
感じる	-10.6991
話してて	-10.6995
暑	-10.6996
って感じだった	-10.7006
クラ	-10.7011
病	-10.7016
悪いこと	-10.7021
ころは	-10.7022
嫌なの	-10.7037
よかったのに	-10.704
かと思ったら	-10.7042
35	-10.7055
買える	-10.7065
連	-10.7069
濃	-10.7072
好	-10.7078
銀	-10.7084
なんなの	-10.7087
じゅ	-10.7089
返して	-10.709
竹	-10.7092
異	-10.7094
状	-10.7094
効果	-10.7094
湖	-10.7094
囲	-10.7094
雑談	-10.7094
添	-10.7095
床	-10.7095
源氏	-10.7095
法律	-10.7095
宇都宮	-10.7095
推	-10.7095
棒	-10.7095
緊張し	-10.7095
お葬式	-10.7095
忘れてた	-10.7095
s	-10.7095
ラーメン	-10.7095
馬	-10.7095
聴	-10.7095
明らかに	-10.7095
欠	-10.7095
ひっくり返	-10.7095
層	-10.7095
伊勢	-10.7095
ショー	-10.7095
盛	-10.7095
枯	-10.7095
神経	-10.7095
離婚	-10.7095
以来	-10.7095
態度	-10.7095
変わんない	-10.7096
銀行	-10.7096
ぎゅ	-10.7097
公開	-10.7097
止まる	-10.7098
持ってった	-10.7098
長崎	-10.7098
現場	-10.7099
ニング	-10.7099
怖かった	-10.7099
っちゃってる	-10.71
当たった	-10.71
やはり	-10.71
定期	-10.71
013	-10.7102
身体	-10.7103
用事	-10.7103
住む	-10.7103
点数	-10.7105
載ってる	-10.7106
昨日も	-10.7106
買ったら	-10.7107
入らない	-10.7109
になりたい	-10.711
030	-10.7112
しびれ	-10.712
なんじゃ	-10.712
祭り	-10.7123
バル	-10.7123
中身	-10.7126
っつった	-10.7132
ところがある	-10.7138
1300	-10.7141
時ごろ	-10.7145
人には	-10.7148
言っちゃった	-10.7148
めん	-10.7148
女子	-10.7149
ないですか	-10.715
いつから	-10.7157
があんの	-10.7158
熱い	-10.7165
わかんなくて	-10.7169
普通の人	-10.717
いたとき	-10.7171
犬が	-10.7173
働き	-10.7198
読ま	-10.7207
少なく	-10.721
行っちゃって	-10.7227
そうだな	-10.7236
説明して	-10.724
の場合	-10.7249
いいとこ	-10.725
みたいだね	-10.7256
見よう	-10.7259
が出てる	-10.7261
なしで	-10.7265
太った	-10.7268
定年	-10.7272
って言ってたから	-10.7274
集めて	-10.7277
するっていう	-10.7288
そうでもない	-10.7288
ゆった	-10.7293
向こうから	-10.7297
子どもたち	-10.7312
みたいだよ	-10.7315
タリ	-10.7329
心理学	-10.7331
活動	-10.7336
づけ	-10.7337
寄って	-10.7339
買っ	-10.7341
どうですか	-10.7345
迷	-10.7347
辞める	-10.7355
入ってきた	-10.736
取れた	-10.7362
という感じ	-10.7366
モス	-10.7396
があるでしょう	-10.7399
君に	-10.7404
うちのお母さん	-10.7408
飼い	-10.741
ぐらいだった	-10.7421
広く	-10.7421
そういうことを	-10.7429
顔を	-10.7435
かばん	-10.7435
回だけ	-10.7435
姉ちゃん	-10.7439
捨てる	-10.7443
そうでしょうね	-10.7456
問題ない	-10.7468
彼の	-10.7468
飲ま	-10.7475
プル	-10.7481
の世界	-10.7481
してくれて	-10.749
自分も	-10.749
祭	-10.7499
両	-10.7499
掛	-10.7508
取ら	-10.7511
開ける	-10.7512
方がいいかな	-10.7518
乱	-10.7526
注	-10.7527
救	-10.7528
陽	-10.7528
婚	-10.7529
n	-10.7529
札幌	-10.7529
破	-10.7529
崩	-10.7529
気の毒	-10.7529
もあり	-10.7529
告	-10.7529
干	-10.7529
お母様	-10.7529
カボチャ	-10.7529
玄関	-10.7529
売る	-10.7529
レッスン	-10.7529
条	-10.7529
水曜日	-10.7529
衣	-10.7529
いただけ	-10.7529
荒	-10.753
彩	-10.753
せんべい	-10.753
チョウ	-10.753
ケイジ	-10.753
主婦	-10.753
交換	-10.753
労	-10.753
自宅	-10.753
と思えば	-10.753
わかります	-10.753
理想	-10.753
増える	-10.7531
絵手紙	-10.7531
具合	-10.7532
パスタ	-10.7532
若者	-10.7532
屋根	-10.7533
どっちかっていうと	-10.7533
工事	-10.7533
呼び	-10.7533
着いて	-10.7533
マスター	-10.7534
集まる	-10.7535
お腹いっぱい	-10.7536
ローマ	-10.7537
浮か	-10.7537
センス	-10.7537
ポスト	-10.7538
とか言われた	-10.754
おもしろくない	-10.7542
ひげ	-10.7549
4000	-10.7549
一気に	-10.755
出てない	-10.755
小さく	-10.7553
そっちの方	-10.7553
直前	-10.756
返す	-10.7568
だめじゃん	-10.757
感じだった	-10.7571
かもしれないし	-10.7572
全然関係ない	-10.7579
やってる人	-10.758
残り	-10.7582
そうだよねえ	-10.7583
長かった	-10.7586
行かなきゃ	-10.7592
行かん	-10.7595
伝わ	-10.7596
巻いて	-10.7597
週末	-10.7604
帰りに	-10.7609
すでに	-10.7625
CM	-10.7641
出てき	-10.7644
どっから	-10.7645
たことある	-10.7647
倒	-10.7649
どころ	-10.7649
ちゃったから	-10.7657
いろいろな	-10.7658
お料理	-10.7661
預け	-10.7662
いるんだけど	-10.7662
3、4	-10.767
ちょい	-10.7671
にしようか	-10.7713
教えた	-10.7717
好きな人	-10.772
食べられる	-10.7724
って言ってたけど	-10.7728
迎えに	-10.7729
でーす	-10.7731
間に合わ	-10.7732
入っ	-10.774
わたしたち	-10.7744
くれれば	-10.7746
辞めて	-10.7751
っていうことを	-10.7752
読める	-10.7754
回す	-10.7755
行こうと思って	-10.7759
われ	-10.776
ふく	-10.7762
おいしいもの	-10.7763
高校のとき	-10.7764
んだろうな	-10.7768
失敗した	-10.7785
下げ	-10.7792
なにも	-10.7795
ふた	-10.7803
本人は	-10.7803
生協の	-10.7809
真ん中に	-10.7809
一部	-10.7815
言っとる	-10.7817
抜	-10.7824
ケン	-10.7828
くせに	-10.783
なーって思って	-10.7854
よかったら	-10.7863
つぐらい	-10.7865
その代わり	-10.7868
が出てきた	-10.7873
どこ行く	-10.7883
やせた	-10.7896
道を	-10.7898
調べた	-10.7901
やばいよ	-10.7902
なんて言うの	-10.7904
行きたく	-10.7906
と思いますよ	-10.7908
わけじゃないから	-10.792
ことがあって	-10.7921
言ってたの	-10.7923
この人が	-10.7924
してきて	-10.793
できるし	-10.7933
離れ	-10.794
題	-10.794
ーんって	-10.7943
連れ	-10.7965
出かけ	-10.7966
ペース	-10.7977
ッキー	-10.7979
延	-10.7982
士	-10.7982
帽子	-10.7983
抱	-10.7983
お客様	-10.7983
票	-10.7983
んところ	-10.7983
研	-10.7983
籍	-10.7983
交通費	-10.7984
認	-10.7984
氷	-10.7984
ポイント	-10.7984
鶴	-10.7984
快	-10.7984
番号	-10.7984
尾	-10.7984
暴	-10.7984
爆	-10.7984
仮	-10.7984
硬	-10.7984
ばりばり	-10.7984
バーベキュー	-10.7984
スウェーデン	-10.7984
症	-10.7984
きっかけ	-10.7984
h	-10.7984
d	-10.7984
紫	-10.7984
頑張る	-10.7984
縮	-10.7984
すき焼き	-10.7984
遺	-10.7984
わけにいかない	-10.7984
麻	-10.7984
評	-10.7985
操	-10.7985
材料	-10.7985
扱	-10.7985
いいかげん	-10.7985
解説	-10.7985
交流	-10.7986
信じられない	-10.7986
信号	-10.7986
どんだけ	-10.7986
入試	-10.7986
封	-10.7986
トラック	-10.7986
日本語教師	-10.7987
きのう	-10.7988
くっついて	-10.7988
サイズ	-10.7988
どのくらい	-10.7988
067	-10.7989
好み	-10.799
ひどく	-10.799
土地	-10.799
学習	-10.7992
時間半	-10.7992
バター	-10.7992
ボード	-10.7993
出張	-10.7998
ウエ	-10.7999
痛み	-10.7999
採用	-10.7999
ランチ	-10.8003
ゆうたら	-10.8004
どっちがいい	-10.8008
怖いよね	-10.8009
選手	-10.801
どこだっけ	-10.8011
わからなかった	-10.8011
しなくても	-10.8012
ナン	-10.8012
お互いに	-10.8019
入ったら	-10.8022
帰ってきたら	-10.8026
やめよう	-10.803
そう思った	-10.8036
打って	-10.8037
ドン	-10.8045
153	-10.8059
だと思ってた	-10.8063
教えてくれ	-10.8074
あるあるある	-10.808
外人	-10.8081
寄り	-10.8083
引いて	-10.8085
わかるわかる	-10.8085
勉強してる	-10.8087
とかって思って	-10.8089
つーか	-10.8091
歩いてる	-10.8101
代わりに	-10.8105
習って	-10.8105
るべき	-10.8108
みたいなもの	-10.8111
おっさん	-10.8112
乗せて	-10.8113
意味ない	-10.8123
高かった	-10.8125
なれる	-10.8131
休学	-10.8139
強く	-10.8139
だったもん	-10.8146
取ってない	-10.816
びっくりする	-10.8162
びっくりして	-10.8163
迷って	-10.817
痛かった	-10.8177
400	-10.8189
となると	-10.8201
任せ	-10.8206
もらってる	-10.8206
は別	-10.8208
ミス	-10.8212
持っていく	-10.8213
こんなもん	-10.8217
週に	-10.8222
届け	-10.8222
月ぐらい	-10.8235
合わせて	-10.8258
食べられ	-10.8265
歩け	-10.8274
そんときは	-10.8276
受かった	-10.8282
明け	-10.8282
ぽん	-10.8289
あっちの方	-10.8296
食べてない	-10.83
自然に	-10.8312
姉さん	-10.8314
高さ	-10.8316
だと思うけど	-10.8324
抜けて	-10.8329
一番いい	-10.8332
001	-10.8338
っちゃえば	-10.8345
閉め	-10.8348
がなくなって	-10.8363
必要な	-10.8366
上の方	-10.8383
ぼけ	-10.839
あったよね	-10.8395
させられ	-10.8395
時半から	-10.8404
から来てる	-10.8404
すごいきれい	-10.8407
投	-10.8444
始	-10.845
活	-10.8455
希望	-10.8455
ジン	-10.8458
存在	-10.8458
念	-10.8459
抗	-10.8459
死んじゃった	-10.8459
森	-10.8459
属	-10.8459
位置	-10.8459
象	-10.8459
お友達	-10.8459
つまんない	-10.8459
握	-10.846
駐	-10.846
絡	-10.846
ウォー	-10.846
*	-10.846
防	-10.846
聖	-10.846
祝	-10.846
一人暮らし	-10.846
剤	-10.846
机	-10.846
詳しく	-10.846
略	-10.846
郡	-10.846
望	-10.846
貴	-10.846
タルト	-10.846
チャンス	-10.846
うらやましい	-10.846
五七五	-10.846
わかりません	-10.846
ぜいたく	-10.846
肩	-10.846
賀	-10.8461
手伝って	-10.8461
そのとおり	-10.8461
軍	-10.8461
しんどい	-10.8461
異常	-10.8461
わからへん	-10.8461
連休	-10.8461
就職活動	-10.8462
コメント	-10.8463
何度も	-10.8463
当たる	-10.8463
似てない	-10.8463
ゼミ	-10.8463
どんどんどんどん	-10.8464
さっぱり	-10.8464
ティング	-10.8464
らしいけど	-10.8465
割引	-10.8465
入院	-10.8465
都会	-10.8465
行かれ	-10.8466
卒業旅行	-10.8466
苦手	-10.8467
パワー	-10.8467
能力	-10.8469
シート	-10.8471
集合	-10.8471
ライン	-10.8473
みえる	-10.8473
探す	-10.8475
しゃべれる	-10.8475
出席	-10.8477
最終的に	-10.8477
ふんふん	-10.8479
意見	-10.848
オール	-10.8484
進んで	-10.8484
生地	-10.8485
どうしようもない	-10.8486
ロード	-10.8489
やったっけ	-10.849
置いてあって	-10.8492
老人	-10.8494
かなあと思って	-10.8499
どうなった	-10.8508
いいわよ	-10.8512
やってたら	-10.8513
立てて	-10.8527
言ったんだけど	-10.8528
そんなことはない	-10.8528
だまされ	-10.853
研究者	-10.853
どこにある	-10.853
そう言えば	-10.8534
久しぶりに	-10.8542
してたんだけど	-10.8549
掛ける	-10.8556
しとく	-10.8559
日目	-10.8563
行きたくない	-10.8564
決めた	-10.8568
切ら	-10.8572
人目	-10.8583
上がる	-10.8601
とは思わ	-10.8604
入ってきて	-10.861
インド	-10.8611
一番下	-10.8619
って言ったから	-10.8619
合ってる	-10.8623
切れる	-10.8643
んじゃないかって	-10.8649
いくらぐらい	-10.8661
染め	-10.8662
そういう人が	-10.8676
渡して	-10.8681
時過ぎ	-10.8681
買	-10.8682
食べたら	-10.8689
言われたら	-10.8691
レック	-10.8693
行きました	-10.8697
動く	-10.8708
レイ	-10.8725
慣れてる	-10.8733
いやいやいやいや	-10.8741
洗う	-10.8753
なくなっちゃって	-10.8757
だったんですよ	-10.8758
何がいい	-10.876
ちゃってる	-10.8792
月まで	-10.8798
ようなもの	-10.8807
ときもある	-10.881
くず	-10.8818
りしてる	-10.8818
建	-10.8823
するのは	-10.8825
弟が	-10.8834
ージュ	-10.8846
太って	-10.8849
乗せ	-10.8874
動き	-10.8888
できてない	-10.8893
ほれ	-10.8929
しっかりして	-10.8937
を買う	-10.8945
留	-10.8946
読んでる	-10.8953
持った	-10.8956
亡	-10.8957
キャンセル	-10.8957
球	-10.8958
句	-10.8958
久	-10.8958
判	-10.8959
課題	-10.8959
製	-10.8959
資	-10.8959
可能	-10.8959
腰	-10.896
スクール	-10.896
ヶ	-10.896
証	-10.896
門	-10.896
見られる	-10.896
販	-10.896
露	-10.896
津	-10.896
ゴリラ	-10.896
トヨタ	-10.896
主人公	-10.896
像	-10.896
拍	-10.896
保育園	-10.896
おじいさん	-10.896
菌	-10.896
失	-10.896
瀬	-10.896
途中から	-10.896
ばらばら	-10.896
ドリンク	-10.896
頑張れ	-10.896
炊	-10.896
儀	-10.896
メイク	-10.896
占	-10.896
インディアン	-10.896
カフェ	-10.896
ソリティア	-10.896
マニア	-10.896
炭	-10.896
ハンバーグ	-10.896
炎	-10.896
訓練	-10.896
専攻	-10.896
メニュー	-10.896
カラー	-10.896
涙	-10.896
ふだん	-10.896
倉	-10.896
すっかり	-10.8961
自動車	-10.8961
燃	-10.8961
五	-10.8961
損	-10.8961
ウイルス	-10.8961
ウィンドウズ	-10.8961
サンドイッチ	-10.8961
と思いながら	-10.8961
ごちそう	-10.8961
になりました	-10.8961
ホームページ	-10.8961
シンガポール	-10.8961
ルーム	-10.8961
いかにも	-10.8962
厳しく	-10.8962
熊本	-10.8962
牛肉	-10.8962
申し込	-10.8963
029	-10.8963
自信	-10.8963
ヒット	-10.8963
呼ぶ	-10.8964
画面	-10.8964
春休み	-10.8964
掛かって	-10.8964
出身地	-10.8964
うちの母	-10.8964
期待	-10.8964
不便	-10.8965
だんな	-10.8965
どおり	-10.8965
理科	-10.8966
作業	-10.8967
スパイ	-10.8967
応用	-10.8968
いまだに	-10.8968
正しい	-10.8969
クレープ	-10.897
ハム	-10.897
くっつけ	-10.8972
楽しんで	-10.8975
研究科	-10.8976
辛い	-10.8978
家事	-10.8979
まさか	-10.898
苦しい	-10.8995
発声	-10.8998
おります	-10.9016
電話かけ	-10.9016
当時	-10.9017
続いて	-10.9019
事件	-10.9035
見れる	-10.9038
多くて	-10.904
大きくなって	-10.9043
中間	-10.9052
ごみ	-10.9053
ろく	-10.9062
使ってない	-10.9064
単に	-10.9073
お休み	-10.9075
だったんです	-10.9079
へ行った	-10.9084
食べ過ぎ	-10.9087
すりゃ	-10.9091
上の人	-10.9096
焼いて	-10.911
りすぎ	-10.9114
息子さん	-10.9124
のところは	-10.9125
かというと	-10.9128
カバー	-10.9132
的なこと	-10.9132
何時に	-10.9139
知った	-10.915
英語の先生	-10.915
きれいだった	-10.916
って言われたら	-10.9163
難しいよね	-10.9167
出たら	-10.9172
人の方が	-10.9175
面倒	-10.9191
なんでもいい	-10.9191
張って	-10.9201
年ぐらい前	-10.9207
全然だめ	-10.9208
勢	-10.9209
来い	-10.9214
時間目	-10.9238
つうの	-10.9242
書ける	-10.9251
くなっちゃう	-10.9252
行こうかな	-10.9259
染	-10.9268
くせ	-10.9272
話してた	-10.9276
してみた	-10.9283
一時	-10.9285
着る	-10.93
入んない	-10.9315
なんでしょ	-10.9324
受かる	-10.9328
預	-10.9329
嫌いなの	-10.9335
お金ない	-10.9347
ようがない	-10.935
アリ	-10.9371
なんだった	-10.9372
決める	-10.9378
なって思って	-10.9382
置き	-10.9382
それでもいい	-10.9402
周りに	-10.9412
その人たち	-10.9426
らんかった	-10.9438
毎	-10.9445
きたい	-10.9449
っぱなし	-10.9459
まじめに	-10.9462
録音して	-10.9465
気にして	-10.9471
協	-10.9482
約束	-10.9483
程	-10.9485
ヴ	-10.9485
ビジネス	-10.9485
故	-10.9485
陸	-10.9485
鍵	-10.9486
納	-10.9486
芸能人	-10.9486
永	-10.9486
了	-10.9486
おそらく	-10.9486
陰	-10.9486
児	-10.9486
デパート	-10.9486
お嬢さん	-10.9486
ポテト	-10.9486
忘れちゃう	-10.9486
脂	-10.9486
おにぎり	-10.9487
網	-10.9487
珍しく	-10.9487
貝	-10.9487
浪	-10.9487
阿波踊り	-10.9487
おひなさん	-10.9487
マニュアル	-10.9487
お疲れさま	-10.9487
冷蔵庫	-10.9487
ダイエー	-10.9487
単純	-10.9487
盛り上が	-10.9487
同窓会	-10.9487
美容院	-10.9487
凝	-10.9487
ファイル	-10.9487
遠慮	-10.9487
マミー	-10.9487
ぼろぼろ	-10.9487
跡	-10.9487
パチンコ	-10.9487
鮮	-10.9487
志望	-10.9487
障害	-10.9487
アドバイス	-10.9487
in	-10.9487
おっきな	-10.9487
住宅	-10.9487
そういうふうな	-10.9487
スーツ	-10.9487
歌った	-10.9487
亡くなって	-10.9487
残念	-10.9487
通じる	-10.9488
に対する	-10.9488
講習	-10.9488
延々	-10.9488
段階	-10.9488
怖くない	-10.9489
独立	-10.9489
高速	-10.9489
たびに	-10.949
泊まる	-10.949
広島	-10.949
明治	-10.9491
愛知	-10.9491
その場で	-10.9491
月の終わり	-10.9492
行かなきゃいけない	-10.9493
みーちゃん	-10.9494
授業料	-10.9495
社長	-10.9495
買いたい	-10.9495
向き	-10.9498
ほおー	-10.9499
オブ	-10.9501
サイン	-10.9503
カット	-10.9505
減る	-10.9505
お砂糖	-10.9505
020	-10.9506
大根	-10.9506
そやけど	-10.9508
飾り	-10.951
仲よく	-10.951
一言	-10.9511
カブ	-10.9513
あっという間に	-10.9516
を受け	-10.9517
生えて	-10.9518
専門学校	-10.9522
やろうと思って	-10.9523
入ってくる	-10.9526
中学生	-10.9529
続く	-10.9529
何やってんの	-10.953
だったんですけど	-10.9532
食わ	-10.9536
軽い	-10.9537
焼く	-10.9538
ほいでさあ	-10.954
目的	-10.9549
これぐらい	-10.9555
へ行く	-10.9559
通った	-10.9569
こんだけ	-10.9577
止めて	-10.958
人形	-10.9581
伝え	-10.9596
食べちゃう	-10.9601
重い	-10.9611
深い	-10.9616
走り	-10.9619
手間	-10.9627
やってます	-10.9638
母親	-10.9651
ビン	-10.9659
コール	-10.9661
何時から	-10.9662
どんな感じ	-10.9672
そーんな	-10.9674
始める	-10.9686
自分のこと	-10.9698
話し方	-10.9704
パス	-10.9705
って思うんだけど	-10.9708
同じように	-10.9719
本屋	-10.9739
立ってる	-10.975
んでしょうけど	-10.975
トップ	-10.976
フライ	-10.9764
行っと	-10.9767
順番に	-10.9786
というような	-10.9792
チェックして	-10.9804
と思いますけど	-10.9807
パイ	-10.9813
っていう話を	-10.982
方がいいと思う	-10.9821
になりそう	-10.9826
私の友達	-10.9829
人によって	-10.9842
楽しいよ	-10.9877
もそうだけど	-10.9898
しょうがないよね	-10.99
思いました	-10.9902
録れ	-10.9905
になれば	-10.9906
行ってきた	-10.9935
しゃべってて	-10.9938
んじゃないかと	-10.994
卒業した	-10.995
ちっちゃ	-10.9952
ちょん	-10.9959
探した	-11.001
やったけど	-11.002
金持ち	-11.0035
独	-11.0036
浩太朗さん	-11.0039
想	-11.0039
掘	-11.004
仏	-11.0041
パターン	-11.0041
練	-11.0041
策	-11.0041
出会い	-11.0041
匹	-11.0041
適	-11.0041
ビュー	-11.0041
忙しくて	-11.0041
算	-11.0042
やらせて	-11.0042
刊	-11.0042
ダウンロード	-11.0042
乳	-11.0042
忘年会	-11.0042
政府	-11.0042
c	-11.0042
シャツ	-11.0042
柿	-11.0042
非	-11.0042
w	-11.0042
ポリス	-11.0042
リーディング	-11.0042
姫	-11.0042
狂牛病	-11.0042
DVD	-11.0042
才	-11.0042
狙	-11.0042
統計	-11.0042
ジャスコ	-11.0042
ベトナム	-11.0042
メロス	-11.0042
季節	-11.0042
盆	-11.0042
房	-11.0042
ジャガイモ	-11.0042
四日市	-11.0042
指導教官	-11.0042
健康	-11.0042
バーゲン	-11.0042
易	-11.0042
ふざけ	-11.0043
ケース	-11.0043
わらわら	-11.0043
以降	-11.0043
撮影	-11.0043
めったに	-11.0043
タイトル	-11.0043
あこがれ	-11.0044
学院	-11.0044
八事	-11.0045
書類	-11.0045
ズボン	-11.0045
重要	-11.0045
小さな	-11.0045
怖ーい	-11.0046
残業	-11.0046
090	-11.0046
そういう意味では	-11.0047
終わっちゃった	-11.0047
満足	-11.0048
018	-11.0049
当たり	-11.0049
医学部	-11.005
ダニ	-11.0051
インター	-11.0051
後半	-11.0052
料金	-11.0052
中華	-11.0053
場面	-11.0054
ナビ	-11.0054
サバ	-11.0058
だれだっけ	-11.0059
ノリ	-11.006
ツナ	-11.0061
オフ	-11.0064
そやから	-11.0066
心配して	-11.0066
若い子	-11.007
カツ	-11.007
起こす	-11.0072
デイ	-11.0072
学長	-11.0074
厚い	-11.008
どう思う	-11.0081
植え	-11.0089
捕ま	-11.009
行きたかった	-11.0092
取れて	-11.0092
やだなー	-11.0099
イタリア人	-11.01
直す	-11.0102
パク	-11.0102
ますます	-11.0103
置く	-11.0104
本気で	-11.0112
乗らない	-11.0112
書いたら	-11.0124
万円ぐらい	-11.0125
にもよる	-11.0128
できなくて	-11.0143
やめた方がいい	-11.015
行ってみたい	-11.0156
それほど	-11.0169
個ぐらい	-11.0174
様子	-11.0178
お金がない	-11.0182
枚ぐらい	-11.0191
らっしゃいます	-11.0196
呼ばれて	-11.0197
そーお	-11.0199
方法	-11.0201
空気	-11.0203
リップ	-11.0206
言うこと	-11.0214
よさそう	-11.023
聞かれた	-11.0234
りっぱな	-11.0235
ラップ	-11.0254
食べちゃった	-11.0255
いろんなとこ	-11.0269
なんだかんだ	-11.0289
りまして	-11.0297
きゃいい	-11.0312
ゆうて	-11.032
ておいて	-11.0329
知ってます	-11.0329
読んでない	-11.035
その中で	-11.0364
けち	-11.0365
つけてる	-11.038
起きる	-11.0412
考えてない	-11.0416
迎え	-11.0417
流れて	-11.0446
大学の先生	-11.0453
呼ばれ	-11.047
りゃいい	-11.0483
もあったし	-11.0489
だったのかな	-11.0514
見たことある	-11.0535
ではなくて	-11.0536
件	-11.0542
なんでだろう	-11.0547
何でもいい	-11.055
うれしく	-11.0555
着てる	-11.0576
らしく	-11.0587
いわれ	-11.0591
ぶっ	-11.0594
遊んでる	-11.0595
最終	-11.061
砂糖	-11.061
漢	-11.0618
丁	-11.0621
ちゅうこと	-11.0624
紀	-11.0628
おととい	-11.0629
チュー	-11.0629
成人式	-11.0629
ひどかった	-11.0629
免	-11.0629
血液	-11.0629
涼	-11.0629
舌	-11.0629
溶	-11.063
忘れたけど	-11.063
ジャケット	-11.063
幕	-11.063
害	-11.063
柳	-11.063
欲しかった	-11.063
らっしゃった	-11.063
批判	-11.063
緊張する	-11.063
ソファー	-11.063
居酒屋	-11.063
未	-11.063
パフェ	-11.063
プリクラ	-11.063
お願いしまーす	-11.063
スカイ	-11.063
なんつーの	-11.063
援	-11.063
おかしかった	-11.063
地球	-11.0631
縦	-11.0631
似たような	-11.0631
経由	-11.0631
臨	-11.0631
ディズニーランド	-11.0631
バランス	-11.0631
アウト	-11.0631
従	-11.0631
黄色	-11.0631
解釈	-11.0631
ともかく	-11.0631
ニューヨーク	-11.0631
福岡	-11.0631
とんでもない	-11.0631
商売	-11.0631
オープン	-11.0631
うざい	-11.0631
映像	-11.0631
だらだら	-11.0631
家賃	-11.0631
といえば	-11.0631
コーパス	-11.0631
メント	-11.0631
半額	-11.0631
似合ってる	-11.0631
トーク	-11.0631
青森	-11.0631
鶏肉	-11.0631
放送	-11.0631
余計	-11.0632
カーテン	-11.0632
果物	-11.0632
少なくとも	-11.0632
編集	-11.0632
福井	-11.0632
もっかい	-11.0632
プリント	-11.0633
筋肉	-11.0633
道具	-11.0633
泊まった	-11.0633
習得	-11.0633
極楽	-11.0633
事務所	-11.0634
ラッキー	-11.0634
大したことない	-11.0634
ねえねえねえ	-11.0634
平安	-11.0635
ハギ	-11.0636
作文	-11.0636
帰ろう	-11.0636
利用	-11.0636
飛ぶ	-11.0637
現代	-11.0638
開発	-11.0638
手帳	-11.0638
当たって	-11.0639
おなかいっぱい	-11.0639
ハード	-11.0639
バーッと	-11.064
基金	-11.064
抜き	-11.0641
外国語	-11.0642
セミ	-11.0643
アンド	-11.0643
マーク	-11.0644
所長	-11.0645
グラス	-11.0648
挙げ	-11.0648
組んで	-11.0654
メン	-11.0655
この時期	-11.0659
SE	-11.0665
次会	-11.0665
研究所	-11.0667
続き	-11.067
エル	-11.0675
日常	-11.0675
やったことない	-11.0684
読んだら	-11.0686
ふっと	-11.069
このぐらいの	-11.0691
大切	-11.0693
見学	-11.0695
聞いてくれ	-11.0701
早かった	-11.0704
ほんじゃ	-11.071
ればいいのに	-11.0711
うれし	-11.0712
気づいた	-11.0723
就職する	-11.0723
映画を見	-11.0726
録る	-11.0786
られなかった	-11.0793
高くない	-11.0796
受けてる	-11.0801
心理	-11.0815
この人たち	-11.0817
眠くな	-11.0828
読めない	-11.0836
社員	-11.0848
って言ってました	-11.0855
いるところ	-11.0864
捨てて	-11.0866
覚えた	-11.0884
気をつけて	-11.0886
半分ぐらい	-11.0897
見にいった	-11.0901
知ってて	-11.0901
社会人	-11.0915
うちの方	-11.0915
用意して	-11.0926
有名な人	-11.0933
買ってくる	-11.0933
何しに	-11.0953
思います	-11.0962
ひっ	-11.1014
600	-11.1014
じゃなーい	-11.1034
作らない	-11.1042
ネコ	-11.1071
笑う	-11.1083
らっしゃい	-11.1084
多くない	-11.1099
ついてて	-11.1116
りっぱ	-11.1132
子どものとき	-11.1162
甘く	-11.1167
外に出	-11.1175
かなって思って	-11.1195
作ったり	-11.1215
録った	-11.1223
辛	-11.1233
入ってます	-11.1233
皿	-11.1234
悲し	-11.1243
華	-11.1244
農	-11.1245
岩	-11.1251
武	-11.1252
額	-11.1252
司	-11.1252
やさしい	-11.1253
域	-11.1254
暖	-11.1254
攻	-11.1254
紅	-11.1254
容	-11.1254
甲	-11.1254
精	-11.1255
お祝い	-11.1255
姓	-11.1255
ガイド	-11.1255
リズム	-11.1255
独特	-11.1255
泡	-11.1255
エネルギー	-11.1255
縁	-11.1255
蔵	-11.1255
イチゴ	-11.1255
オークション	-11.1255
称	-11.1255
といっても	-11.1255
霊	-11.1255
伏	-11.1255
婿	-11.1255
高島屋	-11.1255
置いといて	-11.1255
ウォークマン	-11.1255
典	-11.1255
詩	-11.1255
サトイモ	-11.1255
軽井沢	-11.1255
警察	-11.1255
敏	-11.1255
訴	-11.1255
召し上が	-11.1255
ケータイ	-11.1255
すいませーん	-11.1255
察	-11.1255
真っ黒	-11.1255
頑張った	-11.1256
リラックス	-11.1256
オフィス	-11.1256
仙台	-11.1256
お歳暮	-11.1256
ウーロン茶	-11.1256
別荘	-11.1256
くらげ	-11.1256
スタイル	-11.1256
冷凍	-11.1256
財布	-11.1256
森永	-11.1256
現住所	-11.1256
終了	-11.1256
のぞみ	-11.1256
コマーシャル	-11.1256
心臓	-11.1256
植物	-11.1256
解決	-11.1256
落ち着いて	-11.1256
始まり	-11.1256
デビュー	-11.1256
宮崎	-11.1257
詳しい	-11.1257
千葉	-11.1257
許せない	-11.1257
製品	-11.1257
無視	-11.1257
協力	-11.1257
JALT	-11.1257
つきあい	-11.1257
あげようか	-11.1258
二十	-11.1258
立たない	-11.1258
混ざ	-11.1259
下ろして	-11.1259
教員	-11.1259
関西弁	-11.1259
機関	-11.1259
職業	-11.1259
思いっきり	-11.1259
両方とも	-11.126
葉書	-11.126
今の時期	-11.126
頼まれ	-11.126
ホスト	-11.126
大阪弁	-11.1261
ケット	-11.1261
片道	-11.1261
選んだ	-11.1262
覚えとる	-11.1262
言い訳	-11.1263
ついでに	-11.1263
プール	-11.1263
怒られる	-11.1263
マップ	-11.1264
混む	-11.1265
下宿	-11.1265
迷う	-11.1266
全国	-11.1266
別々	-11.1266
遅かった	-11.1267
メイン	-11.1267
あるいは	-11.1267
ポット	-11.1268
っぺ	-11.1269
項目	-11.1269
クラブ	-11.1269
使いたい	-11.127
毎月	-11.1271
時半ぐらい	-11.1271
お礼	-11.1273
婦人	-11.1273
そっくり	-11.1274
消え	-11.1274
昼間	-11.1281
まあいっか	-11.1282
話せる	-11.1283
遅くなる	-11.1284
ほぼ	-11.1284
前半	-11.1291
お金持ち	-11.1292
沿い	-11.1293
思い出す	-11.1293
知らんかった	-11.1295
教えてもらって	-11.1295
食べれない	-11.1297
寝てた	-11.1298
出してくれる	-11.13
ちゃーん	-11.1311
んじゃないのかな	-11.1312
そんなふうに	-11.132
広げ	-11.1326
彼ら	-11.133
ルーツ	-11.1333
戻った	-11.1338
言うわけ	-11.1357
学生たち	-11.1357
なんちゅう	-11.1357
わけでもない	-11.1389
下げて	-11.1395
引き受け	-11.1398
出せない	-11.1398
って言っちゃ	-11.1407
もいるし	-11.1416
わけではない	-11.1427
いらして	-11.1438
の授業で	-11.1443
だと思います	-11.1469
失礼いたしま	-11.1478
ワーッて	-11.1484
取らない	-11.1495
パン屋	-11.1495
平日	-11.1517
込んだ	-11.1518
育てて	-11.152
おかしくない	-11.1526
ごはん食べ	-11.1556
800	-11.1587
うわーっ	-11.161
んじゃないかしら	-11.1612
思ったこと	-11.1628
言ったっけ	-11.1634
若く	-11.1638
んじゃなーい	-11.1643
買えない	-11.1646
しゃべんない	-11.1652
伝える	-11.1668
娘さん	-11.1699
学者	-11.17
いたします	-11.1726
見えた	-11.173
どうなるか	-11.1732
思ってたけど	-11.1736
したりして	-11.176
ぐち	-11.1772
置いてある	-11.1786
といた方がいい	-11.1805
車に乗	-11.1849
軽く	-11.1896
狭	-11.1899
ウマ	-11.1902
逃	-11.1912
ってゆって	-11.1918
フォン	-11.1918
絶	-11.192
宇宙	-11.192
標準	-11.192
池	-11.1921
処	-11.1921
アレルギー	-11.1921
カラオケ	-11.1921
大量に	-11.1921
デジカメ	-11.1921
プレーヤー	-11.1921
意識して	-11.1922
林	-11.1922
プログラム	-11.1922
u	-11.1922
誤	-11.1922
y	-11.1922
滅	-11.1922
障	-11.1922
ミーティング	-11.1922
ぐるぐる	-11.1922
照	-11.1922
うっとうしい	-11.1922
祖	-11.1922
くださーい	-11.1922
ベーコン	-11.1922
&	-11.1922
億	-11.1922
腕	-11.1922
アピール	-11.1922
アルバム	-11.1922
ジョージ	-11.1922
寿	-11.1922
グアム	-11.1922
ペーパー	-11.1922
粒	-11.1922
ニックネーム	-11.1922
ミキサー	-11.1922
墨	-11.1922
行きたーい	-11.1922
デザイン	-11.1922
雲	-11.1922
キャラ	-11.1922
バナナ	-11.1922
偏差値	-11.1922
スプーン	-11.1922
確実に	-11.1922
とか思いながら	-11.1922
巨	-11.1922
フローリング	-11.1922
可児	-11.1922
建築	-11.1922
ファースト	-11.1922
ちくしょう	-11.1922
浴	-11.1922
棚	-11.1922
自慢	-11.1922
文庫	-11.1922
疑問	-11.1922
競争	-11.1922
納豆	-11.1922
頃	-11.1922
癖	-11.1922
ジーパン	-11.1922
ワッ	-11.1922
政治	-11.1922
コンサート	-11.1922
に比べたら	-11.1923
092	-11.1923
布団	-11.1923
くださって	-11.1923
わざと	-11.1923
インタビュー	-11.1923
プレステ	-11.1923
よろしくお願いします	-11.1923
おまけ	-11.1923
以内	-11.1923
別府	-11.1923
以下	-11.1924
乗り換え	-11.1924
強制	-11.1924
整理	-11.1924
太郎	-11.1924
重視	-11.1924
おもちゃ	-11.1924
メロン	-11.1925
関東	-11.1926
おごって	-11.1926
ガラス	-11.1926
団地	-11.1926
上司	-11.1926
事情	-11.1927
ペット	-11.1927
お墓	-11.1927
四国	-11.1927
ブッシュ	-11.1927
信用	-11.1928
かまわない	-11.1928
いつごろ	-11.193
ベスト	-11.193
サイト	-11.193
成田	-11.193
入り口	-11.1931
作品	-11.1931
ゴマ	-11.1933
割合	-11.1933
上級	-11.1933
出版	-11.1934
教えてもらった	-11.1934
年寄り	-11.1935
せまい	-11.1935
載ってた	-11.1935
こんなふうに	-11.1937
ガスト	-11.1937
やりながら	-11.1938
開けたら	-11.1938
会いに	-11.1938
ブック	-11.1939
学期	-11.194
こっち側	-11.1941
会費	-11.1942
050	-11.1942
マット	-11.1943
漬け	-11.1944
お皿	-11.1944
法学部	-11.1944
狭い	-11.1945
ふとん	-11.1946
とらえ	-11.1946
ごめんごめん	-11.1948
初めて聞いた	-11.1949
あすこ	-11.1952
やってらっしゃる	-11.1952
あんまり好きじゃない	-11.1953
ルール	-11.1953
小学生	-11.1953
ほんなら	-11.1954
送ってきた	-11.1956
大学時代	-11.1957
つうか	-11.1984
一緒だった	-11.199
引っ越して	-11.1993
どうやら	-11.1996
逆子	-11.2004
聞いと	-11.2006
だと思ってる	-11.2008
聞かれて	-11.2019
のしかた	-11.202
おっしゃる	-11.2036
飲め	-11.2045
日本語学校	-11.2052
雑音	-11.2052
と同じぐらい	-11.2084
駅まで	-11.2085
来ちゃった	-11.2089
閉めて	-11.2106
聞こえない	-11.2183
調べる	-11.2208
貸	-11.2218
はかま	-11.2234
増えてる	-11.2254
てきちゃった	-11.2255
かかってき	-11.2256
受け入れ	-11.2258
細かく	-11.2258
もんですから	-11.226
くんない	-11.2264
ショックだった	-11.2267
分間	-11.227
離れてる	-11.2288
と思われ	-11.2313
やります	-11.2362
短期	-11.2419
倒れ	-11.2437
まちがって	-11.246
換	-11.2531
適当	-11.2566
沿	-11.2592
出せば	-11.2601
礼	-11.2616
風呂	-11.2617
朝ご飯	-11.2629
学生のとき	-11.2631
恵	-11.2633
な顔して	-11.2634
いわく	-11.2634
遭	-11.2634
廃	-11.2634
盤	-11.2635
バイキング	-11.2635
専	-11.2635
岸	-11.2635
サングラス	-11.2636
r	-11.2636
没	-11.2636
争	-11.2636
アンケート	-11.2636
すごーく	-11.2636
置いとく	-11.2636
胸	-11.2636
概	-11.2636
圏	-11.2636
ダウン	-11.2636
季	-11.2636
ヤフー	-11.2636
姿	-11.2636
恐ろしい	-11.2636
裁	-11.2636
翻訳	-11.2636
看護婦さん	-11.2636
いらいら	-11.2636
ダイエット	-11.2636
マウンテン	-11.2636
遊ぼう	-11.2636
ノーベル賞	-11.2636
叱	-11.2636
ネイティブ	-11.2636
ユニクロ	-11.2636
痴	-11.2636
鈴	-11.2636
ペネロペ	-11.2636
香嵐渓	-11.2636
ディスク	-11.2636
マイナス	-11.2636
豚	-11.2636
ひたすら	-11.2636
旧	-11.2636
シャワー	-11.2636
ディズニー	-11.2636
きっちり	-11.2636
クーラー	-11.2636
すっげえ	-11.2636
棟	-11.2636
ちょこちょこ	-11.2636
バージョン	-11.2636
雇	-11.2636
葬	-11.2636
姿勢	-11.2637
ソニー	-11.2637
通じない	-11.2637
里	-11.2637
夕飯	-11.2637
貸出中	-11.2637
御	-11.2637
釜	-11.2637
膜	-11.2637
お寿司	-11.2637
奇	-11.2637
俳優	-11.2637
キリスト教	-11.2637
もらわないと	-11.2637
ファックス	-11.2637
うるさく	-11.2637
保証	-11.2637
双子	-11.2637
家庭教師	-11.2637
ちっとも	-11.2637
連続	-11.2637
階建て	-11.2637
対象	-11.2638
ドンキー	-11.2638
感想	-11.2638
都合	-11.2639
案内	-11.2639
試合	-11.2639
よろしいですか	-11.2639
金額	-11.264
精神的に	-11.264
016	-11.264
喜ぶ	-11.264
何げに	-11.264
バスに乗って	-11.2641
針金	-11.2641
不自然	-11.2641
大垣	-11.2643
理論	-11.2644
取ろう	-11.2644
つながって	-11.2644
会いたい	-11.2645
わかんなくって	-11.2645
ベルト	-11.2646
原作	-11.2646
限定	-11.2646
作ろう	-11.2649
和歌	-11.2652
聞きたい	-11.2653
付いてる	-11.2654
全体的に	-11.2655
どうなんだろ	-11.2655
かわいかった	-11.2655
高知	-11.2657
物理	-11.2658
英語教育	-11.2658
高校んとき	-11.266
切れてる	-11.266
IR	-11.2663
ちゃおうか	-11.2667
靴下	-11.2668
言われちゃった	-11.2672
抜かれ	-11.2679
だまって	-11.2705
聞いてみる	-11.2718
蒸し	-11.2719
かわいらしい	-11.274
になれ	-11.2748
降りる	-11.2768
働	-11.2795
まちがってる	-11.2818
乗れ	-11.2821
理系	-11.2824
ルート	-11.2829
事務の人	-11.2888
乗れる	-11.2896
いかなきゃ	-11.2897
南の方	-11.2898
売った	-11.29
切り替え	-11.2906
飲めない	-11.291
いえいえいえ	-11.294
若いとき	-11.294
だったりする	-11.2948
ませんでした	-11.2957
持ってきてくれ	-11.2964
かっこよく	-11.2976
ていうこと	-11.2985
日本語教育学	-11.2999
がいるんだ	-11.3007
ひとつ	-11.301
けばよかった	-11.3031
と思ってるんだけど	-11.3049
飲める	-11.3053
なんて言うのかな	-11.3062
下の方	-11.3063
起	-11.3091
静	-11.316
列車	-11.3182
飼った	-11.3323
返せ	-11.3323
話を聞いて	-11.3365
めんどくさ	-11.3377
洞	-11.3392
垣	-11.3399
砂	-11.3401
爆弾	-11.3402
5〜6	-11.3403
丘	-11.3403
枝	-11.3403
我	-11.3404
セーター	-11.3404
章	-11.3404
キャリア	-11.3404
矢	-11.3405
つながり	-11.3405
疑	-11.3405
四角	-11.3405
ファミリー	-11.3405
自分たちで	-11.3405
泉	-11.3405
ブラジル	-11.3405
湿	-11.3405
イチョウの葉	-11.3405
献	-11.3405
のんびり	-11.3405
牧	-11.3405
仲良く	-11.3405
早めに	-11.3405
施	-11.3405
この野郎	-11.3406
キャラメル	-11.3406
ケアンズ	-11.3406
マグロ	-11.3406
酸	-11.3406
役に立つ	-11.3406
バンデラス	-11.3406
独り暮らし	-11.3406
お好み焼き	-11.3406
シュークリーム	-11.3406
印刷	-11.3406
真っ赤	-11.3406
ハンバーガー	-11.3406
メタファー	-11.3406
わりかし	-11.3406
株	-11.3406
岡崎	-11.3406
p	-11.3406
誰	-11.3406
スピーチ	-11.3406
レーザー	-11.3406
お気に入り	-11.3406
メーカー	-11.3406
焦	-11.3406
トンネル	-11.3406
過去	-11.3406
シャケ	-11.3406
応募して	-11.3406
神奈川	-11.3406
NTT	-11.3406
マスコミ	-11.3406
尻	-11.3406
過程	-11.3406
候補	-11.3406
源	-11.3406
わがまま	-11.3406
今どき	-11.3406
フード	-11.3406
専任	-11.3406
宣伝	-11.3406
池袋	-11.3406
難しかった	-11.3406
近づけ	-11.3406
脱いで	-11.3406
つまみ	-11.3406
かぎり	-11.3406
人しかいない	-11.3406
講演	-11.3407
判断	-11.3407
ガンガン	-11.3407
急いで	-11.3407
独身	-11.3407
怪しい	-11.3407
スポーツカー	-11.3407
配達	-11.3407
教養	-11.3407
メンバー	-11.3407
薬局	-11.3408
待ち合わせ	-11.3408
間に合う	-11.3408
落ち込んで	-11.3409
右折	-11.3409
閉まる	-11.3409
おっしゃってた	-11.341
たまーに	-11.341
世間	-11.341
鎖	-11.341
怖くて	-11.341
知りたい	-11.341
号館	-11.341
消費	-11.341
通勤	-11.341
職員	-11.3411
味覚	-11.3411
うれしかった	-11.3411
どうぞどうぞ	-11.3411
止まった	-11.3411
焼き肉	-11.3411
遅れた	-11.3411
だんだんだんだん	-11.3412
困っちゃう	-11.3413
女優	-11.3413
電車の中で	-11.3413
和風	-11.3413
遅れる	-11.3413
バーッて	-11.3414
地区	-11.3414
スペイン語	-11.3414
今さら	-11.3414
産まれ	-11.3414
タイツ	-11.3415
ネギ	-11.3415
丁目	-11.3415
抜いて	-11.3416
カセット	-11.3416
実感	-11.3416
かかってくる	-11.3417
スペース	-11.3418
たかったんだけど	-11.3418
コンブ	-11.3419
ベース	-11.3419
007	-11.3419
だれもいない	-11.342
週目	-11.342
並み	-11.3421
色紙	-11.3421
あっさり	-11.3421
たいがい	-11.3422
008	-11.3422
踏み	-11.3422
ほりゃ	-11.3422
ロング	-11.3423
知らせ	-11.3425
君たち	-11.3425
買っちゃった	-11.3427
005	-11.3427
ちっちゃく	-11.3429
入っとる	-11.343
熱くな	-11.3432
時間半ぐらい	-11.3433
ピット	-11.3433
死にそう	-11.3439
うちの母親	-11.3442
晩ご飯	-11.3453
届いた	-11.3453
北の方	-11.3464
思わず	-11.3485
以前	-11.3499
子もいる	-11.3502
文系	-11.3513
働いた	-11.3523
おかず	-11.353
やりたくな	-11.3538
なってしまう	-11.3539
行っとった	-11.3557
つないで	-11.3615
走れ	-11.3615
つき合って	-11.3642
なってきて	-11.366
かからない	-11.3667
ニック	-11.368
働け	-11.3714
モケ	-11.3716
受付	-11.3751
入ったとき	-11.3766
かぶって	-11.3772
殺され	-11.3775
はするけど	-11.3796
行かなくても	-11.383
んじゃないかっていう	-11.3833
置け	-11.3846
もらえば	-11.409
んじゃないかと思う	-11.4099
締	-11.4118
お互い	-11.4176
辞	-11.4191
ったことがない	-11.4205
ふんふんふん	-11.4225
じいちゃん	-11.4228
磨	-11.4235
厳	-11.4235
大きかった	-11.4237
液	-11.4237
隔	-11.4237
JAL	-11.4237
明るい	-11.4237
ドクダミ	-11.4238
営	-11.4238
キャン	-11.4238
印	-11.4238
財	-11.4238
眼	-11.4238
伊	-11.4238
完	-11.4238
宗	-11.4238
氏	-11.4238
堅	-11.4238
譲	-11.4238
ケーブル	-11.4238
クラシック	-11.4238
近づいて	-11.4238
屈	-11.4239
ハンサム	-11.4239
カウンター	-11.4239
各	-11.4239
イベント	-11.4239
失礼しまーす	-11.4239
交差点	-11.4239
幼	-11.4239
わかりにくい	-11.4239
レジュメ	-11.4239
ウェブ	-11.4239
はじっこ	-11.4239
警	-11.4239
絵の具	-11.4239
均	-11.4239
チェスター	-11.4239
清	-11.4239
オセロ	-11.4239
歯医者さん	-11.4239
ビスケット	-11.4239
ビリヤード	-11.4239
宝	-11.4239
手羽先	-11.4239
荻窪	-11.4239
モミジ	-11.4239
和菓子	-11.4239
遇	-11.4239
即	-11.4239
b	-11.4239
イチロー	-11.4239
パセリ	-11.4239
年末年始	-11.4239
g	-11.4239
バニラ	-11.4239
正確に	-11.4239
混ぜて	-11.4239
ありがとうございまーす	-11.4239
わかりやすい	-11.4239
ブレーキ	-11.4239
基準	-11.4239
皇	-11.4239
蒲プリ	-11.4239
ガソリン	-11.4239
辞典	-11.4239
マヨネーズ	-11.4239
赤ん坊	-11.4239
枠	-11.4239
縫	-11.4239
喫茶店	-11.4239
真っ白	-11.4239
スケジュール	-11.4239
傾向	-11.4239
行こっか	-11.4239
初心者	-11.4239
巡	-11.4239
コンタクト	-11.4239
猿	-11.4239
群	-11.4239
博多	-11.4239
白無垢	-11.4239
阿佐ヶ谷	-11.4239
がんがん	-11.4239
塚	-11.4239
担任	-11.4239
息抜き	-11.4239
耐えられ	-11.4239
つき合い	-11.4239
カップル	-11.4239
チーム	-11.4239
まつげ	-11.4239
ドライブ	-11.4239
小田急	-11.4239
プリンター	-11.4239
むかついて	-11.424
お嫁さん	-11.424
処理	-11.424
目標	-11.424
英検	-11.424
背が高い	-11.424
関連	-11.424
調節	-11.4241
斜め	-11.4241
みそ汁	-11.4241
所属	-11.4241
香港	-11.4241
指輪	-11.4241
あやしい	-11.4241
意図	-11.4241
抱えて	-11.4241
退職	-11.4242
進まない	-11.4242
うまかった	-11.4243
ガーッて	-11.4243
たいてい	-11.4243
工業	-11.4243
固定	-11.4243
ないないない	-11.4243
シフォン	-11.4244
違ったっけ	-11.4244
特集	-11.4244
勤めてる	-11.4245
住所	-11.4245
紙袋	-11.4245
動いてる	-11.4245
食えない	-11.4245
レンズ	-11.4246
なさった	-11.4246
おいおい	-11.4246
何てーの	-11.4246
水菜	-11.4246
怒られた	-11.4246
食べ放題	-11.4247
目の前に	-11.4247
入れといて	-11.4248
お世話になっ	-11.4248
同意	-11.4249
台北	-11.4251
農家	-11.4257
元に戻	-11.426
えらく	-11.4267
どうなんでしょうね	-11.4269
みえた	-11.4274
捨てちゃった	-11.4288
つなげ	-11.4335
暮れ	-11.4348
飲みにい	-11.4402
ガリ勉	-11.446
もそうだし	-11.4539
どうにか	-11.4556
る人もい	-11.46
順番	-11.4644
浮	-11.4675
多すぎ	-11.4728
面倒見	-11.4734
気はする	-11.4802
やめてくれ	-11.4885
申し訳	-11.4891
くなりました	-11.4947
夕	-11.4971
プリン	-11.5021
出掛け	-11.5035
てごらん	-11.5072
しかたない	-11.5078
完全	-11.5083
項	-11.5125
宅	-11.5126
てくださった	-11.5141
可	-11.5143
よろしい	-11.5144
幸	-11.5144
成功	-11.5146
フラッシュ	-11.5146
UFO	-11.5146
芽	-11.5146
フィレンツェ	-11.5146
鶏	-11.5147
浜	-11.5147
七	-11.5147
アフリカ	-11.5147
ニンジン	-11.5147
いつの間にか	-11.5147
ダイヤ	-11.5147
駆	-11.5147
係	-11.5147
暗記	-11.5147
具体的に	-11.5147
冷静に	-11.5147
九	-11.5147
ビタミン	-11.5147
インドネシア	-11.5148
厳しかった	-11.5148
闘	-11.5148
ませーん	-11.5148
フォロー	-11.5148
ミスチル	-11.5148
洗濯物	-11.5148
メッセージ	-11.5148
ミラノ	-11.5148
漫画	-11.5148
おばちゃま	-11.5148
叩	-11.5148
予稿集	-11.5148
唱	-11.5148
副作用	-11.5148
志	-11.5148
エクセル	-11.5148
エレベーター	-11.5148
比較的	-11.5148
致	-11.5148
(	-11.5148
エジプト	-11.5148
ハウス	-11.5148
浄土宗	-11.5148
イスラム教	-11.5148
潤	-11.5148
レーション	-11.5148
稲	-11.5148
ファッション	-11.5148
訪	-11.5148
青空文庫	-11.5148
サラリーマン	-11.5148
丈	-11.5148
釣	-11.5148
アナウンサー	-11.5148
お手伝い	-11.5148
ゴールドコースト	-11.5148
陶	-11.5148
家事手伝い	-11.5148
ディスカッション	-11.5148
浄土真宗	-11.5148
浦	-11.5148
シンプル	-11.5148
そもそも	-11.5148
ジャニーズ	-11.5148
落花生	-11.5148
鴨	-11.5148
ヒント	-11.5148
則	-11.5148
ばっちり	-11.5148
ファミレス	-11.5148
おかわり	-11.5148
チェーン店	-11.5148
昭和	-11.5148
意味不明	-11.5148
アクセス	-11.5148
十和田	-11.5148
瀬戸内	-11.5148
スピード	-11.5148
ベルギー	-11.5148
浅	-11.5148
迫	-11.5148
透	-11.5148
糖	-11.5148
ナッツ	-11.5148
ゴルフ	-11.5148
暮らす	-11.5148
father	-11.5148
雪降って	-11.5148
children	-11.5148
デンバー	-11.5148
ほこり	-11.5148
なきゃいけなかった	-11.5148
おせち	-11.5148
気づかなかった	-11.5148
泥棒	-11.5148
おふろ	-11.5148
親せき	-11.5148
簿	-11.5148
タイミング	-11.5148
勝負	-11.5148
残酷	-11.5148
工夫して	-11.5148
宗教	-11.5148
浸	-11.5148
因島	-11.5148
エゴラッピン	-11.5148
こーんな	-11.5149
って思いながら	-11.5149
派遣	-11.5149
主義	-11.5149
ずるい	-11.5149
内緒	-11.5149
負担	-11.5149
なんとかかんとか	-11.5149
打ち掛け	-11.5149
素直に	-11.5149
むちゃくちゃ	-11.5149
亀	-11.5149
自分たちの	-11.5149
運命	-11.5149
学童	-11.5149
どんぐらい	-11.515
筆記	-11.515
苦痛	-11.515
助教授	-11.515
グレイ	-11.5151
生きていける	-11.5151
舞台	-11.5151
チューブ	-11.5151
箱根	-11.5151
びっくりしちゃって	-11.5151
学習者	-11.5151
英会話	-11.5151
豊田	-11.5151
共立	-11.5151
奥様	-11.5152
なんじゃそりゃ	-11.5152
服装	-11.5152
お父さんとお母さん	-11.5152
073	-11.5152
おなかすい	-11.5152
表情	-11.5152
撮ろう	-11.5152
ユング	-11.5153
無料	-11.5153
おもしろがって	-11.5153
大きすぎ	-11.5153
っていえば	-11.5154
団体	-11.5155
比べると	-11.5155
取らなきゃいけない	-11.5155
おしり	-11.5155
たばこ	-11.5168
銀座	-11.5169
あふれ	-11.5284
かせて	-11.531
ぴったり	-11.5324
に向かって	-11.534
もらっ	-11.5485
てらした	-11.5904
ておけば	-11.6097
晶	-11.6139
マーライオン	-11.6144
イスラム	-11.6144
レーザーメス	-11.6145
サツマイモ	-11.6145
予想	-11.6146
荒れてた	-11.6146
商	-11.6146
電話かかってきて	-11.6147
ファイブ	-11.6147
外務省	-11.6147
引っ張	-11.6147
健	-11.6147
禅	-11.6147
管	-11.6147
底	-11.6148
おっしゃってました	-11.6148
腸	-11.6148
泥	-11.6148
亜	-11.6148
綿	-11.6148
兼	-11.6148
蔭	-11.6148
穂	-11.6148
狂	-11.6148
肥	-11.6148
刈	-11.6148
存	-11.6148
吐	-11.6148
鏡	-11.6148
境	-11.6148
願	-11.6148
署	-11.6148
築	-11.6148
維	-11.6148
歓	-11.6148
殿	-11.6148
彫	-11.6148
蓄	-11.615
慣	-11.6746
以	-11.7099
皆	-11.7208
ィ	-11.7211
挙	-11.7224
ァ	-11.7253
府	-11.7256
態	-11.7257
泳	-11.7257
怪	-11.7258
腐	-11.7259
凍	-11.7259
龍	-11.7259
簡	-11.7259
柱	-11.7259
渇	-11.7259
候	-11.7259
撲	-11.7259
鐘	-11.7259
毒	-11.7259
賛	-11.7259
瓶	-11.7259
著	-11.7259
拒	-11.7259
紺	-11.7259
芋	-11.7259
ぇ	-11.7259
偽	-11.7259
奏	-11.7259
禁	-11.7259
慎	-11.7259
丼	-11.7259
濁	-11.7259
貫	-11.7259
狩	-11.7259
六	-11.7259
依	-11.726
革	-11.726
暮	-11.8334
迎	-11.8388
答	-11.8423
果	-11.8505
徒	-11.8505
杉	-11.8507
臓	-11.8507
樽	-11.8507
疫	-11.8507
呂	-11.8508
俳	-11.8508
桃	-11.8508
欧	-11.8508
錦	-11.8509
幻	-11.8509
丹	-11.8509
惑	-11.8509
郷	-11.8509
伴	-11.8509
拠	-11.8509
射	-11.8509
織	-11.8509
肝	-11.8509
樟	-11.8509
頻	-11.8509
沸	-11.8509
豪	-11.8509
ぁ	-11.8509
嘘	-11.8509
複	-11.8509
徳	-11.8509
樹	-11.8509
奪	-11.8509
覧	-11.8509
柔	-11.8509
函	-11.8509
灯	-11.8509
睡	-11.8509
乃	-11.8509
拝	-11.8509
雄	-11.8509
謡	-11.8509
討	-11.851
負	-11.9847
婦	-11.9894
緒	-11.9932
必	-11.9933
岡	-11.9935
政	-11.9935
由	-11.9935
童	-11.9935
担	-11.9936
摘	-11.9937
兵	-11.9937
刀	-11.9937
究	-11.9937
釈	-11.9937
鑑	-11.9937
束	-11.9937
謙	-11.9937
窪	-11.9937
架	-11.9937
罰	-11.9937
輸	-11.9937
到	-11.9937
罪	-11.9937
膨	-11.9937
環	-11.9937
裂	-11.9937
隆	-11.9937
党	-11.9937
携	-11.9937
虹	-11.9937
菊	-11.9937
粗	-11.9938
尊	-11.9938
削	-11.9938
k	-11.9938
肺	-11.9938
旭	-11.9938
淡	-11.9938
況	-11.9938
漁	-11.9938
隅	-11.9938
災	-11.9938
微	-11.9938
雷	-11.9938
潔	-11.9938
芝	-11.9938
獲	-11.9938
幹	-11.9938
漬	-12.1547
悲	-12.1568
趣	-12.1591
令	-12.1595
齢	-12.1596
興	-12.1596
熊	-12.1598
随	-12.1602
耐	-12.1602
因	-12.1602
褒	-12.1603
摩	-12.1603
舎	-12.1603
佐	-12.1604
爪	-12.1604
宣	-12.1604
刑	-12.1604
邦	-12.1604
却	-12.1604
腺	-12.1604
叫	-12.1604
潜	-12.1604
脚	-12.1604
鹿	-12.1604
抽	-12.1604
粘	-12.1604
及	-12.1604
贈	-12.1604
述	-12.1604
菓	-12.1604
巣	-12.1604
刷	-12.1604
孝	-12.1604
哲	-12.1604
奴	-12.1604
塞	-12.1604
鬼	-12.1604
羅	-12.1604
麦	-12.1604
<	-12.1604
婆	-12.1605
冠	-12.1605
就	-12.1605
噴	-12.1605
善	-12.1605
序	-12.1605
威	-12.1606
植	-12.3423
偉	-12.3578
般	-12.36
脇	-12.3601
揚	-12.3603
塔	-12.3603
荘	-12.3603
弘	-12.3603
博	-12.3604
軟	-12.3604
傾	-12.3604
拡	-12.3604
玄	-12.3604
摂	-12.3604
!	-12.3604
阿	-12.3604
促	-12.3604
蘇	-12.3604
漂	-12.3604
脊	-12.3604
繁	-12.3604
蹴	-12.3604
互	-12.3604
忍	-12.3604
康	-12.3604
殻	-12.3604
ヂ	-12.3604
x	-12.3604
仁	-12.3604
殴	-12.3604
翼	-12.3604
妥	-12.3604
挿	-12.3604
砲	-12.3604
垂	-12.3604
欄	-12.3604
被	-12.3604
沈	-12.3604
庁	-12.3604
嵐	-12.3604
/	-12.3604
俗	-12.3604
瓦	-12.3604
峠	-12.3604
炒	-12.3604
粋	-12.3605
班	-12.3605
辻	-12.3605
獄	-12.3605
×	-12.3605
懇	-12.3605
既	-12.3605
—	-12.3605
猛	-12.3605
捕	-12.5872
去	-12.6076
墓	-12.6084
斜	-12.6088
賃	-12.6101
準	-12.6103
標	-12.6103
仙	-12.6103
庫	-12.6103
雅	-12.6104
慮	-12.6104
奨	-12.6104
虐	-12.6104
縄	-12.6104
純	-12.6104
慢	-12.6104
爽	-12.6104
仰	-12.6104
梗	-12.6105
偏	-12.6105
競	-12.6105
滝	-12.6106
蒸	-12.9007
帽	-12.9422
浩	-12.9431
荷	-12.9435
詳	-12.9435
辰	-12.9436
韓	-12.9436
徴	-12.9436
漫	-12.9437
酷	-12.9437
奈	-12.9437
希	-12.9437
帝	-12.9437
荻	-12.9438
淳	-12.9438
訓	-12.9438
岳	-12.9438
宇	-12.9438
尋	-12.9438
敬	-12.9439
与	-13.4335
黄	-13.4433
律	-13.4437
険	-13.4437
憶	-13.4437
功	-13.4438
宙	-13.4438
喫	-13.4438
敗	-13.4438
躍	-13.444
需	-14.4169
酵	-14.417
郭	-14.4171
讃	-14.4172
菅	-14.4173
縛	-14.4174
筑	-14.4175
疽	-14.4176
珠	-14.4177
獅	-14.4178
曽	-14.4179
挑	-14.418
把	-14.4181
扁	-14.4182
循	-14.4183
帷	-14.4184
媒	-14.4185
貞	-14.4186
諦	-14.4187
衆	-14.4188
紋	-14.4189
祉	-14.419
矯	-14.4191
癒	-14.4192
痢	-14.4193
泰	-14.4194
懲	-14.4195
弧	-14.4196
幽	-14.4197
寅	-14.4198
嘩	-14.4199
喧	-14.42
伎	-14.4201
践	-14.4202
裸	-14.4203
蛍	-14.4204
舗	-14.4205
脅	-14.4206
綱	-14.4207
琢	-14.4208
灰	-14.4209
椅	-14.421
曇	-14.4211
昇	-14.4212
揮	-14.4213
憲	-14.4214
寧	-14.4215
宸	-14.4216
嬉	-14.4217
雀	-14.4218
陣	-14.4219
臼	-14.422
脈	-14.4221
肪	-14.4222
翌	-14.4223
熟	-14.4224
柴	-14.4225
擬	-14.4226
括	-14.4227
抹	-14.4228
抑	-14.4229
徐	-14.423
匠	-14.4231
凡	-14.4232
鎌	-14.4233
赴	-14.4234
詠	-14.4235
訂	-14.4236
苑	-14.4237
疎	-14.4238
滋	-14.4239
控	-14.424
挟	-14.4241
廊	-14.4242
巳	-14.4243
尿	-14.4244
創	-14.4245
剖	-14.4246
催	-14.4247
侵	-14.4248
酎	-14.4249
苗	-14.425
犯	-14.4251
渉	-14.4252
掲	-14.4253
扇	-14.4254
庄	-14.4255
娩	-14.4256
鍛	-14.4257
鉛	-14.4258
貿	-14.4259
衛	-14.426
融	-14.4261
糸	-14.4262
笹	-14.4263
湘	-14.4264
戒	-14.4265
憩	-14.4266
埼	-14.4267
衝	-14.4268
棲	-14.4269
披	-14.427
忠	-14.4271
娠	-14.4272
契	-14.4273
垢	-14.4274
唯	-14.4275
鏑	-14.4276
銭	-14.4277
薦	-14.4278
繊	-14.4279
烈	-14.428
慌	-14.4281
委	-14.4282
匂	-14.4283
伺	-14.4284
襲	-14.4285
肢	-14.4286
繰	-14.4287
筒	-14.4288
患	-14.4289
須	-14.429
袖	-14.4291
療	-14.4292
燥	-14.4293
旬	-14.4294
彙	-14.4295
秀	-14.4296
招	-14.4297
冗	-14.4298
偶	-14.4299
v	-14.43
膚	-14.4301
挨	-14.4302
拶	-14.4303
惜	-14.4304
悟	-14.4305
妊	-14.4306
蒲	-14.4307
汽	-14.4308
召	-14.4309
剣	-14.431
乏	-14.4311
礎	-14.4312
督	-14.4313
潟	-14.4314
抵	-14.4315
否	-14.4316
停	-14.4317
避	-14.4318
貯	-14.4319
責	-14.432
更	-14.4321
審	-14.4322
監	-14.4323
戚	-14.4324
充	-14.4325
渓	-14.4326
殊	-14.4327
梨	-14.4328
宴	-14.4329
央	-14.433
魅	-14.4331
航	-14.4332
晴	-14.4333
己	-14.4334
ゾ	-14.4335
絞	-14.4336
揺	-14.4337
震	-14.4338
符	-14.4339
稿	-14.434
浄	-14.4341
徹	-14.4342
尽	-14.4343
寂	-14.4344
嬢	-14.4345
含	-14.4346
較	-14.4347
稚	-14.4348
看	-14.4349
濯	-14.435
埋	-14.4351
驚	-14.4352
請	-14.4353
粧	-14.4354
捨	-14.4355
滞	-14.4355
朗	-14.4356
択	-14.4357
咲	-14.4358
履	-14.4359
刻	-14.436
範	-14.4361
往	-14.4362
企	-14.4363
設	-14.4364
獣	-14.4365
距	-14.4366
f	-14.4367
飽	-14.4368
郵	-14.4369
僚	-14.437
示	-14.4371
求	-14.4372
析	-14.4373
伸	-14.4374
診	-14.4375
懐	-14.4376
l	-14.4377
勧	-14.4378
械	-14.4379
景	-14.438
酔	-14.4381
誌	-14.4382
ゥ	-14.4383
護	-14.4384
績	-14.4385
誕	-14.4386
裕	-14.4387
緊	-14.4388
掃	-14.4389
響	-14.439
瞬	-14.4391
導	-14.4392
魔	-14.4393
珍	-14.4394
募	-14.4395
阜	-14.4396
午	-14.4397
価	-14.4398
史	-14.4399
湾	-14.44
岐	-14.4401
雰	-14.4402
供	-14.4403
紹	-14.4404
恥	-14.4405
懸	-14.4406
描	-14.4407
除	-14.4408
詞	-14.4409
識	-14.441
査	-14.4411
詰	-14.4412
介	-14.4413
沖	-14.4414
双	-14.4414
泣	-14.4415
輩	-14.4416
借	-14.4417
押	-14.4418
阪	-14.4419
術	-14.442
越	-14.4421
疲	-14.4422
忙	-14.4423
払	-14.4424
妙	-14.4425
m	-14.4426
途	-14.4427
ォ	-14.4428
頑	-14.4429
批	-14.4429
験	-14.443
努	-14.443
昨	-14.4431
勉	-14.4432
忘	-14.4433
授	-14.4433
普	-14.4434
曜	-14.4434
昭	-14.4434
ェ	-14.4435
考	-14.4436
将	-14.4436
穏	-14.4436
邪	-14.4437
ョ	-14.4437
翻	-14.4437
升	-14.4437
幌	-14.4437
索	-14.4438
奮	-14.4438
ャ	-14.4438
唐	-14.4438
