<unk>	0
<s>	0
</s>	0
<pad>	0
[UNK]	0
、	-1.99724
。	-2.21491
の	-4.33126
?	-4.37182
うん	-4.43066
で	-4.53883
ね	-4.73174
が	-4.88021
は	-4.9273
ー	-4.99837
って	-5.04827
なんか	-5.05384
に	-5.09018
あ	-5.14342
でも	-5.18392
も	-5.23794
と	-5.33033
とか	-5.3589
もう	-5.42461
あの	-5.42538
から	-5.44013
だから	-5.47683
か	-5.56237
を	-5.57435
その	-5.5879
そう	-5.61615
さ	-5.64789
1	-5.71828
よ	-5.79433
な	-5.88691
何か	-5.91435
し	-6.00521
何	-6.08594
ちょっと	-6.10902
い	-6.10975
うーん	-6.11627
あー	-6.17771
え	-6.18796
2	-6.1898
すごい	-6.2049
こう	-6.20709
て	-6.20785
お	-6.21228
あれ	-6.2169
私	-6.2308
ねえ	-6.23801
ねー	-6.25296
た	-6.28055
これ	-6.28218
あのー	-6.28569
ま	-6.298
ん	-6.34079
さー	-6.39371
それ	-6.42805
だって	-6.43336
人	-6.47263
F	-6.4841
る	-6.48471
して	-6.49303
今	-6.4986
ない	-6.50269
じゃない	-6.51673
いや	-6.52634
まあ	-6.53769
く	-6.60514
ら	-6.6156
それは	-6.62405
やっぱり	-6.63954
でしょう	-6.66734
だ	-6.67273
り	-6.69449
いい	-6.69873
けど	-6.7038
あっ	-6.7038
や	-6.70859
わ	-6.70964
ふーん	-6.71155
結構	-6.73845
それで	-6.74557
よね	-6.75089
かな	-6.75315
じゃん	-6.79853
っていう	-6.79866
ああ	-6.80235
そういう	-6.85188
そんな	-6.86775
じゃ	-6.87092
つ	-6.89281
ある	-6.89715
3	-6.91197
んだけど	-6.92121
だけ	-6.93355
じゃあ	-6.9593
さん	-6.96073
する	-6.96703
ほんと	-6.97877
違う	-6.98285
この	-7.00453
みんな	-7.02418
はい	-7.03117
全然	-7.03452
たぶん	-7.04454
ほんとに	-7.05837
した	-7.07012
年	-7.0704
き	-7.11568
まだ	-7.1185
っていうか	-7.1337
んだ	-7.14312
さあ	-7.14488
っ	-7.16182
あと	-7.1745
こ	-7.17676
そ	-7.1996
また	-7.20032
・	-7.20148
日	-7.21214
みたいな	-7.23947
でしょ	-7.24765
だった	-7.24968
4	-7.26703
あんまり	-7.27848
回	-7.28249
す	-7.28375
なかった	-7.28679
ス	-7.29017
う	-7.30059
なの	-7.30654
だよ	-7.30857
:	-7.31048
こと	-7.324
大	-7.32641
んだって	-7.33161
えー	-7.33907
よく	-7.34329
A	-7.35553
ちゃん	-7.35798
いる	-7.36185
先生	-7.36222
まで	-7.36662
別に	-7.3707
もん	-7.37837
だけど	-7.38521
なんで	-7.38758
とか言って	-7.39754
やって	-7.40719
分	-7.41219
ほら	-7.41559
ぐらい	-7.42648
んで	-7.43184
です	-7.44259
った	-7.46396
のね	-7.4735
ええ	-7.47798
前	-7.48185
だよね	-7.48281
全部	-7.48389
なんて	-7.48751
わかんない	-7.49122
えっ	-7.4945
本	-7.49783
私も	-7.5023
だったら	-7.51103
め	-7.51633
み	-7.51895
私は	-7.52228
B	-7.52353
んだよ	-7.52367
あたし	-7.52619
がある	-7.53693
X	-7.53772
すごく	-7.53778
わけ	-7.54633
ば	-7.55523
と思って	-7.55674
ちゃんと	-7.55725
時間	-7.55842
行く	-7.56131
そうそう	-7.56853
M	-7.56949
してる	-7.57083
子	-7.57748
んだよね	-7.58066
ア	-7.58329
そうなんだ	-7.58577
たら	-7.58747
なー	-7.59787
絶対	-7.60106
出	-7.61431
れ	-7.61591
月	-7.62349
それが	-7.62398
やっぱ	-7.6269
それを	-7.62751
行って	-7.62929
やつ	-7.63791
なん	-7.6564
いて	-7.66841
とこ	-7.6847
ちゃう	-7.68964
わかる	-7.69989
5	-7.70018
そっか	-7.70046
一	-7.70066
しか	-7.70698
見	-7.711
C	-7.71178
ですね	-7.71273
いた	-7.71873
と思う	-7.7233
」	-7.72344
いろいろ	-7.7252
中	-7.73368
イ	-7.73937
ク	-7.74437
け	-7.75481
そしたら	-7.75544
みたい	-7.75546
もの	-7.76273
よかった	-7.76883
これは	-7.77024
そうなの	-7.7709
どう	-7.77185
大丈夫	-7.77428
んですよ	-7.7798
っていうのは	-7.78308
ル	-7.785
とき	-7.78597
話	-7.79077
のは	-7.79305
あった	-7.79474
円	-7.79497
D	-7.79596
そうそうそう	-7.79771
手	-7.80133
方	-7.80418
かった	-7.80755
わたし	-7.81538
ときに	-7.81747
って言って	-7.81967
んの	-7.81983
いいよ	-7.82239
そんなに	-7.82341
だめ	-7.83869
できる	-7.83966
せ	-7.8398
人が	-7.8405
ですか	-7.84552
そうだね	-7.85009
最近	-7.8525
やった	-7.85613
ような	-7.85682
6	-7.85802
んですけど	-7.85898
ここ	-7.8627
んですか	-7.87073
には	-7.87166
っと	-7.87457
ラ	-7.8786
10	-7.88015
持って	-7.88064
俺	-7.88739
ド	-7.88912
会	-7.89924
だね	-7.90059
おいしい	-7.90097
リ	-7.901
じゃなくて	-7.90137
どこ	-7.90687
ト	-7.90734
なんだけど	-7.91401
なら	-7.91584
見て	-7.91813
あれは	-7.91859
こんな	-7.92202
行った	-7.92253
でー	-7.92294
はね	-7.92451
】	-7.92762
【	-7.92762
一応	-7.92776
んじゃない	-7.93001
へー	-7.93026
シ	-7.93883
人で	-7.94084
大学	-7.94343
7	-7.945
ろ	-7.9536
チ	-7.95395
とかって	-7.95486
私が	-7.95491
9	-7.95784
という	-7.95947
になる	-7.9613
やってる	-7.96255
うち	-7.96435
感じ	-7.96982
なんだ	-7.96998
かわいい	-7.97038
おもしろい	-7.97079
やん	-7.97117
いっぱい	-7.97948
ただ	-7.97978
もっと	-7.98006
の方が	-7.98573
ずっと	-7.98845
かなー	-7.98867
そうか	-7.98902
ど	-7.9906
今日	-7.99349
すっごい	-7.99579
へえー	-7.9997
言って	-8.00222
E	-8.00418
があって	-8.00757
レ	-8.00774
日本	-8.00777
上	-8.00782
結局	-8.00792
うちの	-8.00876
知らない	-8.01017
こういう	-8.01365
だと	-8.01449
ご	-8.01536
やる	-8.0256
名古屋	-8.02736
「	-8.03053
ン	-8.0313
すぐ	-8.0321
自分の	-8.03247
好き	-8.03486
はー	-8.04079
大変	-8.04523
になって	-8.04704
本当	-8.04984
気	-8.052
ジ	-8.05379
自分で	-8.05638
ですよね	-8.06173
ってこと	-8.06449
よー	-8.06557
食べ	-8.07495
そうですね	-8.08019
そういうの	-8.08371
いつも	-8.08763
なくて	-8.08985
なあ	-8.09185
できない	-8.09199
よう	-8.10307
そうだよね	-8.10393
ですよ	-8.10568
ないから	-8.10812
へ	-8.11162
れる	-8.11237
仕事	-8.11327
8	-8.11421
生	-8.11493
ってる	-8.11552
きた	-8.11728
一番	-8.11763
下	-8.11839
らしい	-8.11982
ところ	-8.12171
G	-8.12195
言う	-8.13103
したら	-8.13699
見た	-8.1377
のかな	-8.13886
来て	-8.1399
って感じ	-8.15892
でもね	-8.15975
山	-8.16104
車	-8.16399
じ	-8.16835
万	-8.17358
かもしれない	-8.17851
名	-8.1819
からね	-8.18537
だし	-8.18605
きっと	-8.18957
ううん	-8.1955
ち	-8.19878
コ	-8.20111
時	-8.2032
東京	-8.20438
高い	-8.20463
方が	-8.20889
多い	-8.21322
個	-8.21352
家	-8.2142
タ	-8.21603
電話	-8.21851
学生	-8.22112
聞いて	-8.22967
夜	-8.2315
たい	-8.23557
一緒に	-8.23632
のよ	-8.23662
もんね	-8.2377
人は	-8.24361
んです	-8.25048
れば	-8.25123
うんうん	-8.2536
英語	-8.25361
朝	-8.25641
物	-8.25773
確かに	-8.25858
こうやって	-8.2612
顔	-8.26176
メール	-8.27144
いろんな	-8.2746
よねー	-8.28043
む	-8.28654
くる	-8.2871
金	-8.29023
の人	-8.2904
カ	-8.29053
のが	-8.29156
I	-8.29233
学校	-8.29327
食べて	-8.29511
こっち	-8.29829
来る	-8.30009
ときは	-8.30562
そうそうそうそう	-8.31053
び	-8.31121
なんかね	-8.31357
いない	-8.31716
嫌	-8.31727
ひ	-8.32182
フ	-8.32194
長	-8.32257
でね	-8.32646
例えば	-8.32721
のに	-8.32756
そうですか	-8.32762
なる	-8.3283
来た	-8.32926
J	-8.33114
同じ	-8.33449
着	-8.33579
っていうの	-8.33601
なんだっけ	-8.33716
それも	-8.33912
怖い	-8.34062
前に	-8.34441
ロ	-8.34511
の方	-8.34775
水	-8.34901
知ってる	-8.34955
より	-8.34995
H	-8.35108
というか	-8.3518
さんが	-8.35419
難しい	-8.3576
頭	-8.35918
ふ	-8.36144
授業	-8.36147
普通の	-8.36543
無理	-8.36663
るから	-8.37261
来	-8.37266
にも	-8.37797
国	-8.37808
どういう	-8.37816
しない	-8.38115
それから	-8.38323
代	-8.38326
足	-8.38372
入れ	-8.38376
ます	-8.38508
出て	-8.39004
そこ	-8.39009
とかさ	-8.39015
本当に	-8.3933
早く	-8.39799
通	-8.40037
マ	-8.40139
普通に	-8.40289
とか思って	-8.40381
私の	-8.40524
普通	-8.40575
けどね	-8.40814
日本語	-8.41096
今度	-8.41364
安い	-8.41539
きて	-8.41813
歌	-8.41815
ちゃ	-8.4186
何で	-8.41866
ッ	-8.41967
あって	-8.42043
目	-8.42096
いつ	-8.42566
そいで	-8.42662
学	-8.42714
そういうこと	-8.42826
いいじゃん	-8.42891
そのー	-8.42971
子ども	-8.43198
バイト	-8.43508
んですよね	-8.43771
30	-8.43889
口	-8.4393
お金	-8.44175
O	-8.44357
しかも	-8.44907
もらって	-8.44938
K	-8.45244
っていうのが	-8.45266
あの人	-8.45327
大体	-8.45327
キ	-8.45356
ほかの	-8.45445
になった	-8.45546
ム	-8.45652
るの	-8.46015
昨日	-8.46351
やってた	-8.46406
そんなん	-8.46526
ました	-8.46532
親	-8.46782
ばっかり	-8.47585
食べる	-8.47823
わからない	-8.48096
あそこ	-8.48475
あんた	-8.48495
人の	-8.48541
書いて	-8.48707
とかも	-8.48776
だろう	-8.48803
入って	-8.49406
写真	-8.4957
食べた	-8.49584
聞いた	-8.49746
そんなこと	-8.50363
がね	-8.50561
んだろう	-8.50702
L	-8.50761
いって	-8.50783
ぶ	-8.50885
外	-8.50997
えーと	-8.51021
たの	-8.51567
ぼ	-8.51748
ほ	-8.5182
いいの	-8.52022
買って	-8.52028
まず	-8.52056
ほんで	-8.5206
男	-8.5208
わからん	-8.52187
だったの	-8.52578
体	-8.52985
お父さん	-8.53016
先生が	-8.53023
ちゃった	-8.53617
だれ	-8.53644
語	-8.53935
なかなか	-8.5412
として	-8.5416
がない	-8.54272
、3	-8.54295
のこと	-8.54476
しい	-8.54572
なって	-8.546
ミ	-8.54826
出る	-8.5483
って言ったら	-8.54857
出して	-8.54983
いく	-8.55058
そうだ	-8.55248
かなあ	-8.5528
何が	-8.55351
かなり	-8.5545
いやー	-8.55494
超	-8.56076
%	-8.56076
20	-8.56319
ウ	-8.56569
てる	-8.56621
ごめん	-8.56696
っちゃう	-8.56703
ないと	-8.56875
食	-8.56911
どうしよう	-8.56915
こないだ	-8.56959
もちろん	-8.57071
くらい	-8.57104
なきゃ	-8.57148
歳	-8.57324
リー	-8.5738
ここに	-8.57664
んでしょう	-8.57923
ください	-8.58155
なくって	-8.58189
なく	-8.58236
名前	-8.58337
もうちょっと	-8.58379
からー	-8.58563
べ	-8.58642
と思った	-8.58679
君	-8.58859
高	-8.58899
言ってた	-8.58969
って言われて	-8.58976
行きたい	-8.59119
んー	-8.59269
お前	-8.59346
の話	-8.59391
だからね	-8.59498
問題	-8.59747
合	-8.59753
ことない	-8.59883
言った	-8.60082
んだけどー	-8.60158
だもん	-8.60206
くて	-8.60404
そこで	-8.60798
言葉	-8.61322
じゃんね	-8.61591
ないよ	-8.61836
色	-8.62168
ツ	-8.6217
味	-8.62707
とにかく	-8.62741
駅	-8.6315
だけで	-8.63223
ったら	-8.63277
白	-8.63493
パン	-8.63631
悪い	-8.6366
ると	-8.63742
どっか	-8.63752
わかった	-8.63769
ほとんど	-8.63811
やろ	-8.63921
くれる	-8.6443
枚	-8.64749
か月	-8.64787
れない	-8.64864
あなた	-8.65004
ないの	-8.65035
ちゃって	-8.65046
高校	-8.65104
何とか	-8.65108
んだから	-8.65244
アメリカ	-8.65274
会社	-8.65815
んじゃないの	-8.65878
買った	-8.66125
のか	-8.66139
ブ	-8.66258
ナ	-8.66463
れた	-8.66561
先生の	-8.66568
初めて	-8.66637
のやつ	-8.66662
えっと	-8.66722
おかしい	-8.67088
にして	-8.67359
今は	-8.67416
的に	-8.67427
度	-8.67432
サ	-8.67462
れて	-8.67526
映画	-8.6754
とりあえず	-8.67635
後	-8.67665
▁	-8.68197
クラス	-8.68212
じゃないの	-8.68406
取り	-8.68517
らない	-8.68644
系	-8.68722
しー	-8.68851
この前	-8.68952
何を	-8.69252
ずーっと	-8.69343
ないけど	-8.69471
作って	-8.6957
P	-8.69891
使う	-8.70076
楽	-8.70127
っていう感じ	-8.70226
でさ	-8.70357
0	-8.70379
いくら	-8.7043
com	-8.70463
って言う	-8.70493
道	-8.70556
空	-8.70687
場	-8.70967
ことは	-8.70967
ガ	-8.71019
関係	-8.71167
なきゃいけない	-8.71306
お母さん	-8.71369
げ	-8.7152
うんうんうん	-8.71639
しよう	-8.72061
たくさん	-8.72116
さんの	-8.72226
うちに	-8.72264
ーい	-8.72282
つけ	-8.72485
どんな	-8.72617
エ	-8.72625
入れて	-8.72712
入	-8.72765
考え	-8.72841
たから	-8.73006
に行って	-8.7334
がいい	-8.73351
変な	-8.73417
では	-8.73762
新	-8.73919
ちょうど	-8.73919
旅行	-8.73981
あとは	-8.74001
昔	-8.74051
書	-8.74219
パ	-8.74375
そこに	-8.74381
方がいい	-8.74563
すいません	-8.7461
だったから	-8.74691
ピ	-8.74835
地	-8.74868
最初	-8.75107
寝	-8.75438
に行く	-8.75461
あるの	-8.75481
帰って	-8.75778
そうだよ	-8.75811
の人が	-8.75834
自分	-8.76026
間	-8.76103
そりゃ	-8.76136
もし	-8.76237
12	-8.76277
S	-8.7633
言い	-8.76344
かー	-8.76518
からさ	-8.76589
気が	-8.76705
どうして	-8.7677
があった	-8.77235
勉強	-8.77398
小	-8.7743
かも	-8.7754
なんていうの	-8.77566
ように	-8.77585
入ってる	-8.77886
されて	-8.77919
日本人	-8.77946
行	-8.77983
町	-8.78196
あんな	-8.78229
11	-8.78256
何かね	-8.78276
めて	-8.78417
そっかー	-8.78473
一緒	-8.78562
バ	-8.78635
出す	-8.78675
ず	-8.78777
毎日	-8.78838
者	-8.78916
だと思う	-8.79028
したい	-8.79154
してた	-8.79156
と思うけど	-8.79167
かなんか	-8.79209
られる	-8.79403
っちゃ	-8.79417
女	-8.79452
意味	-8.79506
そんなの	-8.79725
去年	-8.79914
声	-8.79975
市	-8.8006
やり	-8.80072
N	-8.80079
研究	-8.80189
取って	-8.80318
あのね	-8.8076
この間	-8.80871
々	-8.81103
部屋	-8.81224
作	-8.8133
年間	-8.8136
使って	-8.81382
とかね	-8.81416
やだ	-8.81474
15	-8.81818
出た	-8.81968
知	-8.82115
って言ってた	-8.82312
あとで	-8.82327
数	-8.82374
屋	-8.82518
わたしは	-8.82677
何も	-8.82721
んですね	-8.82748
でもさ	-8.8286
思う	-8.83245
かかる	-8.83256
点	-8.83269
川	-8.83282
携帯	-8.83287
なんかさ	-8.83288
もらった	-8.83521
される	-8.83627
とかいって	-8.83878
しね	-8.84007
さんは	-8.84429
メ	-8.84529
次	-8.84553
だっけ	-8.84697
みたいに	-8.84721
かどうか	-8.84953
ていうか	-8.851
オ	-8.85132
けどー	-8.8514
夏	-8.85245
なに	-8.85374
嫌い	-8.85429
てー	-8.8565
先	-8.85662
ぞ	-8.8588
おんなじ	-8.85925
の先生	-8.85928
だめだ	-8.86111
的な	-8.86152
今年	-8.862
ゆ	-8.86275
テレビ	-8.863
わね	-8.86439
発	-8.86453
ああいう	-8.86475
花	-8.86595
ズ	-8.86626
でき	-8.8669
行かない	-8.86694
もある	-8.86705
何だっけ	-8.8687
きれい	-8.8699
用	-8.87216
ポ	-8.87301
そうです	-8.87596
ぎ	-8.87823
心	-8.87893
っとる	-8.87912
わよ	-8.88192
来年	-8.88244
っけ	-8.88282
のとき	-8.88625
以上	-8.88645
自分が	-8.88723
明日	-8.88912
そうだねー	-8.891
店	-8.89118
とは	-8.89171
なのね	-8.8926
はもう	-8.89382
じゃないですか	-8.89501
たち	-8.89725
らん	-8.89792
近い	-8.89852
思い	-8.90453
料理	-8.90521
とー	-8.90608
っちゃった	-8.9065
ことが	-8.90685
ぐ	-8.90699
T	-8.90721
それに	-8.90723
たんだけど	-8.90918
なのに	-8.91024
ってさ	-8.91026
みたいなの	-8.91421
ながら	-8.91441
ありがとう	-8.91441
早い	-8.91523
グ	-8.91556
ちょ	-8.91624
あら	-8.91811
すると	-8.91819
さっき	-8.92125
なんとか	-8.92309
うそ	-8.92533
長い	-8.92533
出した	-8.92548
あたしも	-8.92595
大きい	-8.92648
考えて	-8.92859
木	-8.92887
って言った	-8.9289
屋さん	-8.92951
なんだって	-8.92985
R	-8.93542
なるほど	-8.93631
はない	-8.93633
うちは	-8.93733
だったっけ	-8.93775
ック	-8.93995
じゃなかった	-8.94038
不	-8.94261
作った	-8.9427
時代	-8.94318
よりも	-8.94355
られて	-8.94466
これが	-8.9466
入れる	-8.94686
50	-8.94963
っていうこと	-8.94981
さんと	-8.94995
その人	-8.94999
のときに	-8.95195
会話	-8.95195
でさー	-8.95396
家族	-8.95763
論文	-8.95766
ついて	-8.95798
そういうふうに	-8.95898
ダ	-8.96149
買う	-8.96202
ニ	-8.96233
そこまで	-8.96253
友達	-8.96269
内	-8.96449
字	-8.96456
ケーキ	-8.96499
人も	-8.9653
もんで	-8.9653
じゃないけど	-8.96536
力	-8.96654
られ	-8.96928
母	-8.96979
言わない	-8.97082
ほど	-8.97092
ーって	-8.97147
スト	-8.97205
嫌だ	-8.97424
少ない	-8.97443
ボ	-8.97649
んだったら	-8.97917
じゃなくって	-8.97937
行き	-8.98053
しちゃった	-8.98124
いいね	-8.98546
今日は	-8.98661
あんま	-8.98701
気がする	-8.98841
っぽい	-8.98871
そのまま	-8.98899
変	-8.99158
そうなんですか	-8.99271
ません	-8.99418
知らん	-8.99442
っていって	-8.99452
切	-8.99465
かしら	-8.99502
ざ	-8.99512
線	-8.99516
中に	-8.99578
ット	-8.99726
かん	-8.9974
いいんじゃない	-8.99934
そうやって	-9.00084
事	-9.00122
感	-9.0023
ですけど	-9.00249
そうだよねー	-9.00254
あれが	-9.00344
しかない	-9.00436
そうすると	-9.00464
してて	-9.0051
書いた	-9.00612
と思うよ	-9.00638
少し	-9.00713
とね	-9.00886
バス	-9.01118
だれか	-9.01424
読んで	-9.0147
つく	-9.01513
わけじゃない	-9.01529
今の	-9.01539
見る	-9.01549
すごいね	-9.01563
ああー	-9.0164
けれど	-9.01663
かけて	-9.01784
っこ	-9.01797
くれた	-9.01852
場所	-9.01854
いかん	-9.01958
なんかさー	-9.02016
わけよ	-9.02021
持ってる	-9.02084
やら	-9.02307
んや	-9.02347
くない	-9.0249
就職	-9.02508
文	-9.02512
あります	-9.02603
飛行機	-9.0263
先生に	-9.02767
帰る	-9.02914
があるから	-9.02944
面	-9.03393
私たち	-9.03403
部	-9.03421
ことを	-9.03583
わりと	-9.03584
ネ	-9.03629
なった	-9.03765
フランス	-9.04111
えて	-9.04149
性	-9.04175
おばあちゃん	-9.04221
今まで	-9.04249
中国	-9.04287
お茶	-9.0434
行こう	-9.04414
っちゃって	-9.04527
そうですよね	-9.05106
100	-9.05232
へん	-9.05439
だな	-9.05513
かって	-9.05551
ても	-9.05603
わかって	-9.05703
、「	-9.05772
田	-9.05822
バー	-9.05824
限	-9.05832
かっこいい	-9.05914
っか	-9.0595
ビ	-9.06144
人に	-9.06444
言ってる	-9.06468
同	-9.06619
そういえば	-9.06662
書く	-9.06691
飲んで	-9.06706
言われて	-9.06849
この人	-9.06911
イン	-9.07119
なんだよ	-9.07127
んでしょ	-9.07165
女の子	-9.07187
海	-9.07206
とる	-9.07227
肉	-9.07275
絵	-9.07486
ところで	-9.07568
聞く	-9.07632
韓国	-9.07666
入る	-9.07919
若い	-9.0793
40	-9.08128
そんで	-9.08152
あるじゃん	-9.08156
新しい	-9.08374
はず	-9.08405
わー	-9.08444
特に	-9.08696
出てくる	-9.08705
ご飯	-9.0879
だからー	-9.08936
いいよね	-9.08967
デ	-9.09114
産	-9.09152
くれ	-9.09153
された	-9.09164
日本の	-9.09253
つか	-9.09408
だからさ	-9.09477
られない	-9.0955
全然違う	-9.09575
ティ	-9.09736
集	-9.09835
週間	-9.09978
薬	-9.10007
ホテル	-9.10011
時半	-9.10111
やばい	-9.10165
期	-9.10266
そのあと	-9.1051
帰り	-9.10593
なんですけど	-9.10612
どっち	-9.10763
ほいで	-9.10829
それこそ	-9.10923
雪	-9.1095
しょうがない	-9.10959
これを	-9.11038
赤	-9.11075
どうも	-9.11537
こういうの	-9.11574
自	-9.11624
日に	-9.1172
いいけど	-9.11858
やったら	-9.11887
連れて	-9.11892
どれ	-9.11907
ろう	-9.12239
引	-9.12316
動	-9.12342
みんなで	-9.12381
人間	-9.12444
やろう	-9.1249
そうね	-9.12553
風	-9.12584
生活	-9.12604
教えて	-9.12604
開	-9.12618
小学校	-9.12697
痛い	-9.12759
寒い	-9.12862
してない	-9.12944
60	-9.13199
の方に	-9.13482
これで	-9.13684
楽しい	-9.13978
そこの	-9.14084
冬	-9.14339
モ	-9.14648
だもんね	-9.14648
うまく	-9.14668
かい	-9.1482
くなる	-9.14951
いった	-9.15013
みたいで	-9.15028
のー	-9.15064
元気	-9.15129
ール	-9.15149
教育	-9.15203
式	-9.15243
そのとき	-9.15397
1000	-9.15435
会った	-9.15474
ないよね	-9.15621
いいなー	-9.15656
ってさー	-9.15663
なかったら	-9.1567
いやいや	-9.1582
置いて	-9.15851
なーい	-9.15978
行ったら	-9.16063
になってる	-9.16084
ばか	-9.16087
ケ	-9.16094
わかんないけど	-9.16228
テ	-9.16418
別	-9.16485
定	-9.16642
どうする	-9.16672
って言われた	-9.16808
理	-9.16892
お姉ちゃん	-9.17104
つき	-9.17237
それだけ	-9.17261
見たら	-9.1742
さんに	-9.17448
終わり	-9.17451
実	-9.17588
もいい	-9.17659
科	-9.17799
まー	-9.17803
なんだろう	-9.17847
つい	-9.1793
休み	-9.17944
ちゃんが	-9.17977
文化	-9.17985
ましょう	-9.18025
られた	-9.18028
その辺	-9.18129
かもしれないけど	-9.18299
びっくりした	-9.18348
って思う	-9.18373
奥さん	-9.18544
プ	-9.18621
えーっと	-9.18644
すぎ	-9.18728
側	-9.18881
忙しい	-9.18904
試験	-9.18906
実は	-9.18941
ター	-9.1896
の中に	-9.19177
音	-9.19242
なんかねー	-9.19333
年生	-9.19419
なり	-9.19665
もー	-9.19832
どうやって	-9.19833
ほん	-9.19852
なんですか	-9.19861
やりたい	-9.19918
やめ	-9.19989
したの	-9.19996
困る	-9.20088
京都	-9.20156
向こう	-9.2021
んだっけ	-9.20252
が一番	-9.20298
ラン	-9.20368
るけど	-9.20473
女の人	-9.20539
の方は	-9.20642
紙	-9.20717
台	-9.20769
好きな	-9.20775
魚	-9.20785
ちっちゃい	-9.20948
なんだよね	-9.21088
って思って	-9.21323
します	-9.21445
ここで	-9.21529
成	-9.21724
三	-9.21726
煮	-9.21733
要するに	-9.21735
ればいい	-9.21777
言わ	-9.21872
にする	-9.21887
とかは	-9.22061
うちら	-9.22254
当	-9.22479
ディ	-9.22694
量	-9.22698
乗って	-9.2274
前の	-9.22777
106	-9.22932
ほしい	-9.23152
いいんだけど	-9.23196
ころ	-9.23215
んだもん	-9.23434
歩いて	-9.2344
の子	-9.23559
それでも	-9.23651
服	-9.2366
妹	-9.23667
小さい	-9.23689
はあ	-9.23732
話を	-9.23755
ということ	-9.23814
ちょっと待って	-9.23928
休	-9.23952
だったかな	-9.24121
いう	-9.2413
が違う	-9.2431
かわいそう	-9.24333
ものを	-9.24403
ていう	-9.24408
行ける	-9.2443
犬	-9.24468
そうだった	-9.24473
に行った	-9.24481
あるよ	-9.24502
飲み	-9.24539
欲しい	-9.24547
セ	-9.24581
野	-9.24582
表	-9.24623
沖縄	-9.24649
おもしろかった	-9.24657
おいしかった	-9.24669
こういうふうに	-9.2475
について	-9.24892
もない	-9.25005
にね	-9.25242
なかったの	-9.25286
とか言われて	-9.25333
りとか	-9.25469
いけない	-9.2548
ほんとは	-9.25506
室	-9.25586
役	-9.25638
しゃ	-9.25661
うまい	-9.25739
の中で	-9.25784
ないじゃん	-9.25825
MD	-9.25862
座	-9.2599
やね	-9.26007
んじゃないかな	-9.26262
言われた	-9.26282
友だち	-9.26301
れてる	-9.26362
でもなんか	-9.26363
あり	-9.26425
身	-9.26482
ギ	-9.26615
あまり	-9.26627
イメージ	-9.26638
出し	-9.26645
発表	-9.26654
と思ったら	-9.26658
留学生	-9.26679
しゃべ	-9.26695
ため	-9.26795
んじゃん	-9.26871
時間が	-9.26894
くれて	-9.27046
そうじゃない	-9.27088
これも	-9.27199
初め	-9.27443
この辺	-9.27454
安	-9.27516
行け	-9.27529
いっつも	-9.27651
とかいう	-9.27677
その子	-9.2778
とかさー	-9.27839
月の	-9.27934
そっち	-9.28027
か何か	-9.2804
あるから	-9.28196
そして	-9.28205
かもしれん	-9.28205
待って	-9.28217
よくない	-9.28378
男の子	-9.28641
コーヒー	-9.28668
だろ	-9.28675
もともと	-9.28683
言	-9.28812
出てる	-9.28951
たって	-9.29091
ところが	-9.292
分ぐらい	-9.29245
つけて	-9.29331
ないし	-9.29351
書き	-9.29482
所	-9.29573
ザ	-9.29699
ヤ	-9.29699
まーす	-9.2979
変わった	-9.29808
取	-9.29866
まじで	-9.2998
着て	-9.30093
それって	-9.30162
人ぐらい	-9.30182
やってて	-9.30188
んやけど	-9.30247
でした	-9.30259
広	-9.30296
いいや	-9.30299
かない	-9.30317
しさ	-9.30548
確か	-9.30559
ーっと	-9.30611
んですけどね	-9.30636
ものが	-9.30649
んじゃ	-9.30679
もね	-9.30714
大阪	-9.30732
ビデオ	-9.30738
県	-9.30741
なさい	-9.3079
ッて	-9.30801
黒	-9.30891
見える	-9.30981
明	-9.30986
いたら	-9.31023
会って	-9.31197
たり	-9.31206
なるほどね	-9.31229
来ない	-9.31241
だれが	-9.31288
どこに	-9.31356
もらう	-9.31491
重	-9.31515
先生は	-9.31533
人と	-9.31539
機	-9.31747
売って	-9.31758
ますよ	-9.3181
録音	-9.31844
からさー	-9.3195
何でも	-9.31966
そー	-9.31989
のところ	-9.32122
半	-9.32383
するの	-9.32428
半分	-9.32466
おー	-9.32634
直	-9.32651
和	-9.32824
右	-9.32848
美	-9.32856
Q	-9.32856
必ず	-9.32857
だいじょうぶ	-9.32858
新聞	-9.32869
13	-9.33031
CD	-9.33065
あっち	-9.33131
たくない	-9.33225
だか	-9.33311
太	-9.3342
の名前	-9.33494
員	-9.3353
ーン	-9.33572
様	-9.33673
なんかこう	-9.33676
これから	-9.33754
ベ	-9.33823
ける	-9.33858
論	-9.33904
だんだん	-9.33919
丸	-9.33932
U	-9.33933
連絡	-9.33935
たん	-9.34135
立	-9.34381
そっかそっか	-9.34389
って思った	-9.34421
なべ	-9.34527
気に	-9.34632
作る	-9.34726
行くの	-9.34886
さんも	-9.34895
クリスマス	-9.35018
コンピュータ	-9.35021
火	-9.35021
猫	-9.35021
結婚	-9.35113
遠い	-9.3517
いるの	-9.35172
かなと思って	-9.35191
いいな	-9.3525
ワー	-9.35474
みて	-9.35628
の中	-9.35685
話す	-9.35853
乗	-9.35927
持ち	-9.36062
しゃべって	-9.3628
僕は	-9.36326
話し	-9.36358
ハ	-9.36381
なのか	-9.36402
っていうのを	-9.36432
けどさ	-9.36454
います	-9.36466
入った	-9.36479
やすい	-9.36495
るわけ	-9.36503
コン	-9.36565
おか	-9.36583
逆に	-9.36641
ちゃんは	-9.36682
りして	-9.36801
ごめんね	-9.36862
意	-9.36995
され	-9.37006
思って	-9.37009
化	-9.37212
西	-9.37224
Y	-9.37231
ある程度	-9.37284
気持ち	-9.37326
だわ	-9.37354
違うの	-9.37445
くって	-9.3754
俺は	-9.37692
車で	-9.37721
古	-9.38076
なこと	-9.382
電車	-9.38251
無	-9.38328
館	-9.38329
運転	-9.38353
じゃーん	-9.3842
遅い	-9.38439
でもさー	-9.3844
最初に	-9.38496
でいい	-9.38546
受け	-9.38577
14	-9.3863
主	-9.38656
わたしも	-9.38704
が好き	-9.38832
とかで	-9.38838
せる	-9.38959
としては	-9.39129
ほんとだ	-9.39133
僕	-9.3921
言ったら	-9.39303
ったの	-9.39421
んと	-9.39456
断	-9.39488
サン	-9.39553
付	-9.39576
とって	-9.39617
なってる	-9.39657
使ってる	-9.39659
なんです	-9.39716
あげる	-9.39724
と思うんだけど	-9.39801
お店	-9.39808
にさ	-9.3982
実際	-9.40111
大学院	-9.40112
いらない	-9.40214
帰	-9.40247
ぐらいの	-9.40361
マイク	-9.40413
なのかな	-9.40437
みたいな感じ	-9.40492
しまった	-9.40501
指	-9.40554
業	-9.40583
弁	-9.40623
なくなる	-9.40649
が多い	-9.40651
お正月	-9.407
マン	-9.40728
終わって	-9.40734
500	-9.40745
弟	-9.40911
ために	-9.41004
海外	-9.41022
部分	-9.41029
かもね	-9.41086
洗	-9.41112
言われ	-9.41115
隣	-9.41186
ところに	-9.41192
そんな感じ	-9.41273
説明	-9.41407
習	-9.41431
っとった	-9.4147
んだね	-9.41501
イタリア	-9.41665
ばっか	-9.41715
原	-9.41782
病院	-9.41803
背	-9.41803
橋	-9.41803
テープ	-9.41804
べつに	-9.41804
ゆっくり	-9.41809
ような気がする	-9.41901
全く	-9.41967
なくなった	-9.42055
っていうふうに	-9.42072
古い	-9.42091
返	-9.42144
思った	-9.42171
そば	-9.42286
落	-9.42451
とった	-9.42479
南	-9.42565
正	-9.42573
もあるし	-9.42599
だけどね	-9.42645
戻	-9.42728
彼	-9.42763
何ていうの	-9.42838
出ない	-9.42857
品	-9.4296
一生懸命	-9.42976
パソコン	-9.42977
だいぶ	-9.42987
うそー	-9.42993
似てる	-9.42995
がさ	-9.43038
どうぞ	-9.43038
している	-9.4321
取った	-9.43222
後ろ	-9.43307
まあね	-9.43427
とっても	-9.43501
なんですよ	-9.43512
使わない	-9.43806
お昼	-9.43869
切り	-9.43883
引き	-9.44015
ノ	-9.44069
データ	-9.44168
おっきい	-9.44169
裏	-9.44171
読む	-9.44187
フランス語	-9.442
004	-9.44211
法	-9.44226
取る	-9.44354
なと思って	-9.44366
こっちに	-9.44391
のかなー	-9.4451
みんなが	-9.44551
ずつ	-9.44585
近く	-9.44707
るんだ	-9.44731
なくても	-9.44976
、10	-9.4505
東	-9.45166
電	-9.45294
消	-9.45331
トイレ	-9.45374
情報	-9.45375
おまえ	-9.45385
をして	-9.4546
200	-9.45523
ーとか言って	-9.45656
なかったから	-9.45701
切って	-9.4571
なければ	-9.45805
ダー	-9.45823
んな	-9.45888
んですって	-9.4593
行ったの	-9.46099
安く	-9.46127
横	-9.46213
はある	-9.46245
やっと	-9.46267
必要	-9.46389
番	-9.46429
しょ	-9.46434
彼女	-9.46466
そうそうそうそうそう	-9.46469
けて	-9.46481
どんどん	-9.46577
とかって言って	-9.46581
階	-9.46582
北海道	-9.46584
いきなり	-9.46587
歯	-9.46588
タイプ	-9.46602
オー	-9.46616
読み	-9.46651
だよねー	-9.46679
相手	-9.46681
よし	-9.46882
広い	-9.47277
いいか	-9.47409
覚え	-9.47415
土	-9.47531
そんなことない	-9.47664
割	-9.47665
たまに	-9.47674
元	-9.4769
治	-9.47803
先輩	-9.47829
たまたま	-9.47836
んだろうね	-9.47904
あたしは	-9.47939
週	-9.47996
それでね	-9.47999
食べない	-9.48141
ふう	-9.48384
強い	-9.48446
いくつ	-9.48486
渡	-9.48516
切れ	-9.48561
関係ない	-9.48655
りゃ	-9.48751
雑	-9.48835
とかー	-9.48924
使える	-9.48978
転	-9.49067
つらい	-9.49087
子が	-9.49301
しても	-9.49421
りする	-9.49433
の人は	-9.49571
ゆう	-9.49695
かね	-9.4976
学部	-9.49823
書いてある	-9.49874
いるから	-9.49927
ますよね	-9.50083
住	-9.50232
言語	-9.50268
使	-9.50302
言えない	-9.50325
石	-9.50335
はーい	-9.50597
男の人	-9.50613
最初は	-9.50631
怒	-9.50684
できた	-9.50836
おい	-9.50852
ライ	-9.50877
ここの	-9.50966
ぜ	-9.50973
だー	-9.51045
それと	-9.51062
だろうね	-9.51065
しゃべる	-9.51135
ないでしょう	-9.51136
パー	-9.51174
とも	-9.51202
んだけどさ	-9.51373
って何	-9.51385
卒業	-9.51459
そうな	-9.51475
進	-9.51559
置	-9.51613
二	-9.51622
ときどき	-9.51622
途中で	-9.51623
練習	-9.51625
V	-9.5163
空港	-9.51633
おばさん	-9.5164
女性	-9.51646
るんだけど	-9.51808
けれども	-9.51856
よくわかんない	-9.51872
大学の	-9.51947
をね	-9.51962
たけど	-9.51971
を持って	-9.51977
的	-9.52142
があるの	-9.5239
そういうのは	-9.52423
時から	-9.52474
んだけどね	-9.52555
とさ	-9.52638
てた	-9.52667
次の	-9.5279
になったら	-9.52793
あるよね	-9.5281
覚えてない	-9.52836
ッチ	-9.52911
飲む	-9.52937
テスト	-9.52945
替え	-9.53172
人たち	-9.53218
なのよ	-9.53356
待	-9.53425
と一緒に	-9.53477
ことがある	-9.53803
見てる	-9.53812
こんなに	-9.5392
聞き	-9.53936
変わる	-9.53966
調	-9.53987
が悪い	-9.54011
選	-9.54054
きれいな	-9.54101
起こ	-9.54189
ッと	-9.54203
島	-9.54231
土曜日	-9.54241
田舎	-9.54242
感じで	-9.54288
言われる	-9.54361
あれを	-9.54381
うるさい	-9.54397
帰ってきて	-9.54472
というのは	-9.54557
おいしそう	-9.54564
行くと	-9.54571
になっちゃう	-9.5459
終わる	-9.54623
、6	-9.54664
知らなかった	-9.54731
れん	-9.54743
よねえ	-9.54754
ちゃんの	-9.54889
っていうのも	-9.54896
あるけど	-9.54917
ぱ	-9.55087
とかに	-9.55274
乗り	-9.55345
ってことは	-9.55383
笑	-9.55409
状態	-9.55515
費	-9.55528
愛	-9.55563
型	-9.55566
左	-9.55572
内容	-9.55576
両方	-9.556
だったんだけど	-9.55811
ってね	-9.55827
最後	-9.55888
聞いたら	-9.55967
ロー	-9.56031
残	-9.5619
いえ	-9.56271
のよね	-9.56295
家に	-9.5635
みそ	-9.5637
、8	-9.56402
25	-9.56422
通って	-9.56577
急に	-9.566
らしいよ	-9.56626
熱	-9.56653
月に	-9.56672
カー	-9.56701
ものは	-9.56849
解	-9.56908
ヒ	-9.56914
質問	-9.56923
勝手に	-9.56925
第	-9.56926
そうなんだー	-9.56998
落ち	-9.5704
ないんだ	-9.57086
ぽ	-9.57135
んど	-9.57198
今度は	-9.57201
って言うから	-9.57233
もさ	-9.57288
はいはい	-9.57361
先に	-9.57382
送	-9.57443
んとき	-9.57483
みたいな感じで	-9.57483
るよ	-9.57512
大変だ	-9.57679
売ってる	-9.57723
だってさ	-9.57796
入り	-9.57838
、5	-9.58018
ではない	-9.58019
いけ	-9.58116
おう	-9.58162
のとこ	-9.58195
ひどい	-9.58293
チーズ	-9.58294
雰囲気	-9.58296
偉い	-9.58311
食べ物	-9.58412
んだー	-9.5843
見えない	-9.586
うわ	-9.58644
付け	-9.5887
しちゃう	-9.59086
っていう感じで	-9.5915
あそこの	-9.59257
かか	-9.59272
目が	-9.59418
茶	-9.59439
によって	-9.59457
だとか	-9.5951
るし	-9.59557
髪	-9.59675
すごーい	-9.59692
込んで	-9.59703
流	-9.59773
でもねー	-9.59781
そのときに	-9.59833
ほかに	-9.59867
なんにも	-9.5992
送って	-9.5995
くなって	-9.59984
を見て	-9.60149
使った	-9.60189
起き	-9.60195
ないんだけど	-9.60223
使い	-9.60393
日本に	-9.60463
違い	-9.60475
たま	-9.60482
になると	-9.60561
んとこ	-9.60572
終わった	-9.60629
もうね	-9.60754
へーえ	-9.60794
見てない	-9.60889
持	-9.60899
父	-9.60905
院	-9.60987
イギリス	-9.61088
教室	-9.61102
中学	-9.61204
よりは	-9.61226
うちも	-9.61329
に入って	-9.6134
はっきり	-9.61526
されてる	-9.61565
平	-9.61624
上げ	-9.61652
んだと思う	-9.61786
をする	-9.61844
やー	-9.61894
かけ	-9.61962
のかなあ	-9.62177
天	-9.62226
るのは	-9.62256
私ね	-9.62278
びっくり	-9.62296
何にも	-9.62317
アル	-9.62347
入ってない	-9.62398
前は	-9.62421
興味	-9.6252
違います	-9.62599
来てる	-9.62606
一度	-9.62636
何ていうか	-9.62657
にした	-9.62771
周り	-9.63179
しました	-9.63332
最初の	-9.63433
あげ	-9.63577
回って	-9.6368
全	-9.63688
形	-9.6371
出てた	-9.63833
専門	-9.63874
してくれ	-9.63881
泊	-9.63899
ング	-9.63913
仕	-9.63956
袋	-9.63961
俳句	-9.63971
023	-9.63985
話して	-9.64097
近	-9.6417
みよう	-9.64184
歳まで	-9.64196
教え	-9.64211
ないもん	-9.64221
はねー	-9.64243
そういうのが	-9.64268
させて	-9.64284
死	-9.64471
大人	-9.64528
違って	-9.64552
にいる	-9.64611
頑張って	-9.64671
ワ	-9.64746
ップ	-9.64814
昔は	-9.65028
にある	-9.65084
変わって	-9.65162
ぴ	-9.6517
ぐらいで	-9.65255
つの	-9.65327
社	-9.65335
なっちゃう	-9.65374
心配	-9.65395
職	-9.65411
ホ	-9.65429
春	-9.6543
写	-9.65435
普段	-9.6544
キロ	-9.6552
高校生	-9.65523
んだよねー	-9.65625
あれも	-9.65657
ピー	-9.65658
さえ	-9.65709
ほう	-9.65723
時間ぐらい	-9.6585
まずい	-9.65947
おお	-9.6604
読んだ	-9.66054
焼	-9.66114
なくなって	-9.66214
働いて	-9.66267
あたしが	-9.66269
見ると	-9.66361
ができる	-9.66509
えーっ	-9.66582
止め	-9.66849
減	-9.66863
乗る	-9.66877
席	-9.66882
訳	-9.66913
台湾	-9.66933
お菓子	-9.66934
不思議	-9.66934
かもしんない	-9.66934
まっすぐ	-9.66935
油	-9.66936
ゴ	-9.6711
上手	-9.67148
ドル	-9.67183
歳から	-9.67212
パリ	-9.67446
んち	-9.67458
姉	-9.67555
ですから	-9.67671
ごはん	-9.67787
でもやっぱり	-9.67958
お母さんが	-9.67976
いたの	-9.68053
大好き	-9.68061
教	-9.68092
前から	-9.68133
通り	-9.68175
みたいの	-9.6826
みたら	-9.68277
のかしら	-9.68359
料	-9.6837
対	-9.68421
配	-9.68435
神	-9.68441
課	-9.68441
いわゆる	-9.68448
関西	-9.6845
.	-9.6845
の人たち	-9.68454
帰ってきた	-9.68455
出てきた	-9.68519
どこで	-9.68526
帰ってくる	-9.68527
たりする	-9.68528
間に	-9.68582
何年	-9.68622
昔の	-9.68666
俺も	-9.68852
たぶんね	-9.68948
どういうこと	-9.69008
だったけど	-9.6913
っつって	-9.6916
いいかな	-9.69185
いいのかな	-9.69604
やらない	-9.69605
ソ	-9.69714
してるから	-9.69741
ってのは	-9.69754
すぎる	-9.69799
タイ	-9.69843
関	-9.69858
あそこに	-9.69873
がすごい	-9.69942
光	-9.6996
てさ	-9.69972
民	-9.69986
食べたい	-9.69987
センター	-9.69991
ほか	-9.70003
もらえる	-9.70011
実習	-9.70024
まる	-9.70107
かわい	-9.70142
世界	-9.70157
あったの	-9.70223
ないといけない	-9.70302
行ってた	-9.70331
売り	-9.7057
学会	-9.70774
そうよ	-9.70784
何だろう	-9.7087
だからさー	-9.70957
あれって	-9.71
行ってる	-9.71138
この子	-9.71211
ぐらいに	-9.7124
ってない	-9.7127
けない	-9.71271
18	-9.7138
読	-9.71392
23	-9.71408
しまう	-9.71444
ずに	-9.715
かと思った	-9.71504
真	-9.71517
反	-9.71521
号	-9.71529
質	-9.71543
青	-9.71546
卵	-9.71547
月曜日	-9.71549
ゲ	-9.71552
値段	-9.71552
格好	-9.71553
おじさん	-9.71556
あたしの	-9.71642
向いて	-9.71693
ないね	-9.71724
あたり	-9.71743
そうしたら	-9.71746
そうかそうか	-9.71834
病気	-9.71834
今から	-9.7189
実家	-9.71909
に居住	-9.71914
そんなもん	-9.7216
十分	-9.72194
悪	-9.72301
わかん	-9.72461
とか言ってた	-9.72565
言え	-9.72576
つける	-9.72621
年ぐらい	-9.727
英語で	-9.72732
よって	-9.72735
ことはない	-9.72747
時に	-9.72934
大事	-9.73038
らっしゃる	-9.73048
初	-9.73058
区	-9.7312
記	-9.73132
戦	-9.73133
ずいぶん	-9.73133
e	-9.73135
反対	-9.73142
全員	-9.73147
何かこう	-9.73161
覚えてる	-9.73171
どういうふうに	-9.732
わない	-9.73209
その人が	-9.73245
降	-9.73353
なんていうか	-9.73628
円ぐらい	-9.73636
してくれる	-9.73676
のさ	-9.73977
させ	-9.74046
思ってる	-9.74123
たりとか	-9.74142
何かさ	-9.74189
友達が	-9.74189
終わ	-9.74393
頼	-9.74424
それぐらい	-9.74546
先生も	-9.74661
とかが	-9.74695
校	-9.74698
かと思って	-9.747
留学	-9.74719
便	-9.74732
ション	-9.74744
皮	-9.74746
せっかく	-9.7475
書いてあった	-9.74772
すんの	-9.74817
ってー	-9.74842
出てこない	-9.7487
どっちか	-9.74879
だよー	-9.74913
になっちゃって	-9.75291
までは	-9.75309
人もいる	-9.75323
やな	-9.75328
んかった	-9.75359
そうかー	-9.75367
なし	-9.75415
とかっていう	-9.7542
教える	-9.75451
な感じ	-9.75776
なんていう	-9.75793
いてる	-9.75918
好きじゃない	-9.75974
危ない	-9.76016
けども	-9.7604
人とか	-9.76077
悪く	-9.76227
バン	-9.76254
焼き	-9.76307
かわかんない	-9.76316
組	-9.76316
利	-9.7636
箱	-9.76381
耳	-9.76388
復	-9.76388
ピアノ	-9.76388
素	-9.76389
フィ	-9.7639
えらい	-9.76403
ごめんなさい	-9.76419
カード	-9.76437
OK	-9.76472
人がいる	-9.76597
っぱ	-9.76644
でも何か	-9.76703
電気	-9.76719
うーんと	-9.76794
ないと思う	-9.7717
大の	-9.77282
自転車	-9.77364
白い	-9.77376
なんかすごい	-9.77383
座って	-9.77415
いっぱいある	-9.77418
いったら	-9.77446
ちゃんに	-9.77456
そろそろ	-9.77523
、30	-9.77562
中学校	-9.77689
回ぐらい	-9.77753
はあー	-9.7776
作り	-9.7776
ものすごい	-9.77819
腹	-9.77852
はさ	-9.7786
北	-9.77874
似	-9.78016
移	-9.7804
Z	-9.78056
厳しい	-9.7806
生徒	-9.7806
運動	-9.78067
文字	-9.78067
講座	-9.78068
ワイン	-9.7807
大きな	-9.78071
レベル	-9.78075
いただき	-9.78076
恥ずかしい	-9.78183
タン	-9.78198
ここは	-9.78323
やってない	-9.78354
らしくて	-9.78584
娘	-9.78602
長く	-9.78717
てて	-9.78837
任	-9.78944
感じがする	-9.79036
知ら	-9.7905
見てて	-9.79079
書い	-9.79083
思	-9.79116
どこの	-9.79174
とても	-9.79209
歩	-9.79357
日本語の	-9.79398
ュ	-9.79437
多	-9.79557
常	-9.7962
っていうような	-9.79641
入れた	-9.79702
戸	-9.79744
器	-9.79746
宮	-9.79747
温	-9.79751
ありがとうございます	-9.79752
もったいない	-9.79754
便利	-9.79757
修論	-9.79757
込み	-9.79773
イタリア語	-9.79779
動物	-9.79798
乗った	-9.79808
みた	-9.79846
たよ	-9.79853
親が	-9.7989
万円	-9.79923
やるの	-9.7994
的には	-9.79968
下手	-9.79973
土日	-9.80135
受	-9.80269
お金が	-9.80319
向こうの	-9.80326
ことに	-9.80449
言っと	-9.8057
使わ	-9.80863
わか	-9.80871
うわー	-9.80907
が出る	-9.80907
日本で	-9.80958
今年は	-9.81034
十	-9.81141
24	-9.81293
ほー	-9.81393
甘	-9.81413
基	-9.81445
夢	-9.81468
日曜日	-9.81471
鳴	-9.81474
塩	-9.81477
経済	-9.81478
とか言う	-9.81501
もしかして	-9.81502
毎年	-9.81509
やっぱりね	-9.8152
モン	-9.81527
このごろ	-9.81552
うれしい	-9.81565
戻って	-9.8157
にくい	-9.81585
しゅ	-9.81647
どうだろう	-9.81734
日本語で	-9.8175
でもいい	-9.81837
どうせ	-9.81847
つもり	-9.8198
00	-9.82025
ここまで	-9.82056
早	-9.82096
起きて	-9.82137
痛	-9.82155
今回	-9.82211
せん	-9.82357
のところに	-9.82396
聞こえ	-9.82568
ブル	-9.82671
行か	-9.82697
できて	-9.82734
入ってた	-9.82778
たのね	-9.82782
離	-9.82797
わたしが	-9.82835
みる	-9.82856
お父さんが	-9.8299
ついてる	-9.83006
大きく	-9.83025
はいい	-9.83035
考える	-9.83078
載	-9.8315
過ぎ	-9.83175
すればいい	-9.83191
優	-9.83214
折	-9.8322
わざわざ	-9.83229
栄	-9.8323
特	-9.83311
話題	-9.83391
コース	-9.83437
と一緒	-9.8345
楽しみ	-9.83497
19	-9.83511
暑い	-9.83522
急	-9.83641
ますか	-9.83643
コー	-9.83659
なんだけどー	-9.83757
どー	-9.83809
んよ	-9.83815
っていう話	-9.83914
買い	-9.83962
じゃねえ	-9.84018
見え	-9.8412
言い方	-9.84182
ったり	-9.84183
先生と	-9.84192
あれば	-9.84219
社会	-9.84223
合わせ	-9.8423
うちで	-9.84346
そういう感じ	-9.84353
最後の	-9.84388
アメリカの	-9.84626
にしても	-9.84729
なくていい	-9.84755
るような	-9.84836
味が	-9.84902
好きなの	-9.84948
結	-9.84993
辞め	-9.85001
村	-9.85008
ユ	-9.85009
福	-9.8501
そうよね	-9.85012
収	-9.85012
忘れちゃった	-9.85012
準備	-9.85013
香	-9.85014
教科書	-9.85016
非常勤	-9.85018
カレー	-9.85019
シュ	-9.85031
伝	-9.85044
日の	-9.85093
頼んで	-9.85094
いける	-9.85127
どうしても	-9.85129
すれば	-9.8513
アイ	-9.85248
ふん	-9.85316
なーと思って	-9.85386
あーあ	-9.85445
なんでも	-9.85473
日は	-9.85481
そう思う	-9.85504
張	-9.85517
んだわ	-9.85573
合う	-9.85589
違う違う	-9.85625
見せ	-9.85638
あったら	-9.85656
ひま	-9.85768
人って	-9.85854
はやっぱり	-9.85869
住んで	-9.86177
シー	-9.86236
まあまあ	-9.86286
向こうで	-9.86368
何かねー	-9.86467
会う	-9.86559
くなった	-9.86586
現	-9.86611
行ったことない	-9.86641
アン	-9.86723
工	-9.86747
採	-9.86771
公	-9.86806
画	-9.86815
端	-9.86828
i	-9.86833
サラダ	-9.86834
種類	-9.86835
鳥	-9.86836
スキー	-9.86872
めんどくさい	-9.86897
やんか	-9.86923
てない	-9.86944
答え	-9.86952
とか思う	-9.8696
じゃないよ	-9.8701
カル	-9.87035
っちゅう	-9.87073
おっ	-9.87203
下に	-9.87312
ブラ	-9.87313
英語の	-9.87332
80	-9.87356
ましたよ	-9.8745
がい	-9.87464
あるんだけど	-9.87621
嫌な	-9.87659
ハン	-9.8771
そこは	-9.87713
微妙	-9.87722
上が	-9.87788
行ってない	-9.87854
ならない	-9.87872
パパ	-9.87918
遠く	-9.87979
踊	-9.87989
事務	-9.88062
てね	-9.88272
つけた	-9.88286
どうなんだろう	-9.88429
俺の	-9.88458
なんでー	-9.88497
始めた	-9.88586
根	-9.88597
靴	-9.88603
覚えて	-9.88639
情	-9.88663
片	-9.88667
約	-9.88676
野菜	-9.88678
だれも	-9.88679
グループ	-9.8868
吸	-9.88683
誕生日	-9.88684
076	-9.88686
余裕	-9.88687
荷物	-9.88688
俺が	-9.88782
どうし	-9.88811
こん	-9.88811
のことを	-9.88854
こちら	-9.88868
子は	-9.88889
下が	-9.89059
平気	-9.89088
難	-9.89118
はちょっと	-9.8916
しさー	-9.89288
らしくって	-9.89296
テレビで	-9.89507
っつ	-9.89536
しないと	-9.8959
なあかん	-9.89602
しなきゃいけない	-9.89664
と同じ	-9.89702
んだろ	-9.89766
いとこ	-9.89776
のために	-9.89819
ことある	-9.89863
5000	-9.89995
あれで	-9.90064
ちょっとね	-9.90103
ちゅう	-9.90104
捨て	-9.90119
のを	-9.90124
時ぐらい	-9.90185
行けば	-9.90269
なくてもいい	-9.90348
相	-9.90412
信	-9.90511
ペ	-9.90523
得	-9.90553
やると	-9.90556
わけでしょう	-9.90563
制	-9.90566
歴	-9.90568
済	-9.9057
冊	-9.90571
資料	-9.90571
米	-9.90573
表現	-9.90575
最悪	-9.90577
みんなに	-9.90692
撮って	-9.90694
じゃないから	-9.90753
ニュース	-9.90818
本当は	-9.90848
わけね	-9.90919
話が	-9.90957
まった	-9.90998
たんだ	-9.91039
あいつ	-9.91169
取られ	-9.91254
君が	-9.91262
細	-9.91329
知って	-9.91353
人とも	-9.91477
それとも	-9.91527
売れ	-9.91548
人いる	-9.91602
ちょっと違う	-9.91661
リン	-9.91679
きつい	-9.91731
なっちゃった	-9.9191
なかったけど	-9.91913
てさー	-9.9202
残って	-9.92053
寝て	-9.92064
ついた	-9.92093
マー	-9.92176
になるの	-9.92186
らしいんだけど	-9.92239
マイ	-9.92319
見に	-9.92382
最後に	-9.9239
きれいに	-9.92392
どうした	-9.9244
慣れ	-9.92486
保	-9.9249
検査	-9.92491
井	-9.92492
首	-9.92494
ゲーム	-9.92494
ドクター	-9.92494
毛	-9.92495
むかつく	-9.92496
緑	-9.92496
経験	-9.92498
センチ	-9.92513
ファン	-9.92523
食事	-9.92544
持ってきて	-9.92569
プロ	-9.92576
しっかり	-9.92584
中国語	-9.92586
多かった	-9.92675
振り	-9.92689
細い	-9.92725
取れる	-9.9274
さんって	-9.92774
甘い	-9.92833
調べて	-9.92873
音が	-9.9297
聞	-9.9302
探して	-9.93032
だれかが	-9.93111
に行ってる	-9.93171
ボー	-9.93184
強	-9.93313
家の	-9.93366
だからもう	-9.93615
ーとか	-9.93694
韓国の	-9.93705
思い出	-9.93719
んですけどー	-9.9375
そうでしょう	-9.93816
系の	-9.93823
してー	-9.93831
って感じで	-9.93861
思い出した	-9.93874
おる	-9.93886
彼は	-9.93887
かり	-9.93917
ときには	-9.94068
の問題	-9.94203
ほっと	-9.94227
薄	-9.94234
こっちの	-9.94243
学校の	-9.94311
がいっぱい	-9.94352
応	-9.94368
兄	-9.9442
路	-9.94436
スペイン	-9.94437
触	-9.94444
師	-9.94448
観	-9.94448
差	-9.94449
しばらく	-9.94454
種	-9.94458
横浜	-9.94458
インターネット	-9.94458
よけい	-9.94464
あのとき	-9.94468
しましょう	-9.94474
夏休み	-9.94487
並んで	-9.94495
上がって	-9.94497
ワン	-9.945
ビール	-9.94511
いかない	-9.94572
ノート	-9.94588
場合	-9.94637
思わ	-9.94641
レン	-9.94671
文学	-9.9468
るよね	-9.94682
でもー	-9.94851
できん	-9.94946
が来て	-9.94963
ないわけ	-9.95101
年前	-9.95169
70	-9.95188
けばいい	-9.9535
の上に	-9.9537
時期	-9.95419
の近く	-9.95491
絶対に	-9.95631
いい人	-9.95898
気分	-9.95918
人気	-9.9599
昼	-9.96175
リア	-9.96186
やめて	-9.96229
決まって	-9.96284
かたち	-9.96294
になっちゃった	-9.96338
宿	-9.96408
穴	-9.9642
』	-9.96443
お願い	-9.96443
『	-9.96444
血	-9.96452
なんとなく	-9.96452
許	-9.96452
壁	-9.96454
セット	-9.96456
松	-9.96456
寮	-9.96456
技	-9.96457
街	-9.96457
ストレス	-9.96458
すんごい	-9.96459
に対して	-9.96459
単位	-9.96461
買い物	-9.96486
くれない	-9.96568
もうほんとに	-9.96643
短い	-9.96659
残ってる	-9.96809
売	-9.96876
けば	-9.96887
なんだろうね	-9.97046
自然	-9.97064
んでしょうね	-9.97073
少	-9.97108
もう全然	-9.97118
あーあー	-9.97167
なったら	-9.97188
外国人	-9.97203
うんうんうんうん	-9.97208
のかもしれない	-9.97277
のさー	-9.97292
時まで	-9.9751
ふうーん	-9.97569
行けない	-9.97595
って言うの	-9.97742
と思	-9.97791
いいですね	-9.97862
生き	-9.97914
寒	-9.97974
何人	-9.98024
入れない	-9.98092
知らないけど	-9.98151
来てた	-9.98171
止	-9.98223
こんなん	-9.98254
に来て	-9.98258
ごろ	-9.98261
は全然	-9.98262
うどん	-9.98263
寺	-9.98293
旅	-9.98381
違	-9.98399
閉	-9.98416
だめなの	-9.98459
登	-9.9847
るか	-9.98484
お客さん	-9.98491
金曜日	-9.98491
城	-9.98493
積	-9.98495
基本的に	-9.98495
誘	-9.98496
借りて	-9.98496
粉	-9.98497
ウサギ	-9.98497
よっぽど	-9.98498
漢字	-9.98502
助	-9.98518
飛び	-9.98522
するから	-9.98523
結婚式	-9.98523
立ち	-9.9855
飛んで	-9.9856
楽しかった	-9.98594
考えると	-9.986
のある	-9.9866
きます	-9.98667
るんですよ	-9.98691
が欲しい	-9.98724
あるんだ	-9.9875
って言われる	-9.98814
下り	-9.98833
年の	-9.98887
年に	-9.98894
これって	-9.98952
あんの	-9.98987
こない	-9.99076
としても	-9.99174
何々	-9.99208
ようになった	-9.99307
変え	-9.99313
そうかな	-9.99316
づ	-9.99357
要	-9.99499
ーッと	-9.99503
自体	-9.99548
遊びに	-9.99576
固	-9.99618
遅く	-9.99694
だけどー	-9.9973
よかったね	-9.99835
こんなの	-9.99853
でも私	-10
の部屋	-10.0001
分け	-10.0004
130	-10.0009
にいた	-10.0018
買わ	-10.0039
飛	-10.0047
じゃないと	-10.0047
冷	-10.0055
それはね	-10.0055
突	-10.0057
円で	-10.0057
千	-10.0057
虫	-10.0057
印象	-10.0057
秋	-10.0058
効	-10.0058
だいじょぶ	-10.0058
温泉	-10.0058
W	-10.0058
機械	-10.0058
初級	-10.0058
一般	-10.0058
予定	-10.0058
お願いします	-10.0059
いらっしゃる	-10.0059
ありますよね	-10.0061
ピンク	-10.0061
ポンド	-10.0061
じゅう	-10.0061
呼んで	-10.0064
名字	-10.0066
けんか	-10.0074
歩く	-10.0075
巻き	-10.0077
家で	-10.0078
んのよ	-10.0081
にならない	-10.0083
若い人	-10.0083
そういうところ	-10.0085
だろうな	-10.0094
やけど	-10.0101
見たい	-10.0105
いなかった	-10.0107
子どもが	-10.0111
見ない	-10.0121
っぽ	-10.0125
歌って	-10.0136
東京に	-10.0143
これだけ	-10.0154
しゃべり	-10.0159
だったんだ	-10.0169
に乗って	-10.019
ガー	-10.0193
文法	-10.0193
僕も	-10.0195
そうなん	-10.0195
しとる	-10.0198
楽し	-10.0206
考えてる	-10.0208
つって	-10.0212
フル	-10.0216
るところ	-10.0224
たしか	-10.0227
ありました	-10.024
打	-10.0244
トリ	-10.0245
っていうんで	-10.0252
電話して	-10.0253
けん	-10.0259
葉	-10.0267
お弁当	-10.0267
運	-10.0268
テーマ	-10.0268
予	-10.0269
園	-10.0269
守	-10.027
やせ	-10.027
鼻	-10.0271
玉	-10.0271
トマト	-10.0271
クッキー	-10.0273
なくなっちゃった	-10.0273
行っちゃった	-10.0275
マジで	-10.0275
曲	-10.0281
買いに	-10.0281
ママ	-10.029
のときは	-10.03
って言ってたよ	-10.0302
いっ	-10.0305
ばかり	-10.0307
思ってた	-10.0313
そこから	-10.0319
だったよ	-10.033
言える	-10.033
合わない	-10.0331
若	-10.0338
開けて	-10.0341
生協	-10.0354
どうなんだろうね	-10.0355
しちゃって	-10.0359
逆	-10.036
言うと	-10.036
出てきて	-10.0362
してんの	-10.0362
の方がいい	-10.0367
ああいうの	-10.0368
がー	-10.0375
歌う	-10.0404
話した	-10.0404
ほんとー	-10.0407
もんだから	-10.0407
ってくる	-10.0416
いいから	-10.0433
月から	-10.0436
調子	-10.0443
取れ	-10.0445
による	-10.0468
ること	-10.0474
級	-10.0475
かっていう	-10.0478
嫁	-10.0486
交	-10.0487
余	-10.0487
すてき	-10.0488
再	-10.0488
ヘ	-10.0488
オーストラリア	-10.0488
コンビニ	-10.0488
帯	-10.0488
レポート	-10.0488
静岡	-10.0488
坂	-10.0488
めちゃめちゃ	-10.0488
ご主人	-10.0489
国際	-10.0489
に入る	-10.0494
仲いい	-10.0495
言ってたけど	-10.05
発音	-10.0511
まとめ	-10.0515
ときも	-10.0525
へえ	-10.0526
かなーと思って	-10.0528
夕方	-10.0529
勉強して	-10.0531
汚い	-10.0531
ですかね	-10.0537
ほんま	-10.0539
アップ	-10.0541
のもの	-10.0541
遠	-10.0541
ぜん	-10.0546
赤い	-10.055
でしたっけ	-10.0557
のころ	-10.0558
帰った	-10.0562
っち	-10.0563
がさー	-10.0563
私に	-10.0565
奥	-10.0571
決め	-10.0572
困	-10.0582
顔が	-10.0584
わかんなかった	-10.0604
日本語教育	-10.0608
といて	-10.0611
思っちゃう	-10.0616
してるの	-10.0619
大変な	-10.0623
にしよう	-10.0625
あの子	-10.0627
やること	-10.0631
いるじゃん	-10.0632
いいんだ	-10.0633
開け	-10.0643
なんかもう	-10.065
がすごく	-10.065
いいなあ	-10.0652
をやって	-10.0655
録	-10.0656
語学	-10.0656
いやいやいや	-10.066
食い	-10.0665
したり	-10.0684
回目	-10.0689
行っても	-10.0703
昔から	-10.0706
持ってって	-10.0707
百	-10.0707
用の	-10.0707
ようと思って	-10.0707
寝る	-10.0708
満	-10.0708
たちが	-10.0709
談	-10.0709
退	-10.0709
戦争	-10.071
値	-10.071
恋	-10.071
加	-10.071
亡くなった	-10.071
激	-10.071
倍	-10.071
おばあさん	-10.071
あたりまえ	-10.0711
もしかしたら	-10.0711
わかってる	-10.0713
音楽	-10.0714
出身	-10.072
来週	-10.0723
カキ	-10.0723
教会	-10.0724
音声	-10.0727
育	-10.0733
何分	-10.0753
いいねー	-10.0757
こんなこと	-10.0768
例	-10.0775
んのかな	-10.0781
って話	-10.0781
あの辺	-10.0788
どれぐらい	-10.079
があるんだ	-10.0791
どの	-10.0799
個人	-10.0806
000	-10.0806
そういう話	-10.0807
と思ったんだけど	-10.0813
方言	-10.0822
んない	-10.0828
あげて	-10.0835
撮	-10.0839
聞いてる	-10.0842
ますけど	-10.0843
ってやつ	-10.0844
が出てくる	-10.0851
だもんで	-10.0855
けどさー	-10.0856
にー	-10.0857
失礼	-10.0859
外国	-10.0861
生きて	-10.0862
か月ぐらい	-10.0865
ことも	-10.0867
っていうと	-10.0869
とかだったら	-10.0872
末	-10.0891
気を	-10.0903
買え	-10.0907
ところは	-10.0921
んやろ	-10.0924
んだけども	-10.0925
ければ	-10.0928
っと思って	-10.0929
教授	-10.0937
理由	-10.0937
記憶	-10.0937
オッケー	-10.0938
レストラン	-10.0938
良	-10.0938
暇	-10.0938
火曜日	-10.0938
芸	-10.0938
邪魔	-10.0938
よいしょ	-10.0938
苦労	-10.0938
始まって	-10.0938
お兄ちゃん	-10.0938
地下鉄	-10.0938
電池	-10.0938
自由	-10.0938
ッシュ	-10.0939
込む	-10.0939
言いながら	-10.0943
プラス	-10.0943
んかな	-10.0947
助手	-10.0948
何しろ	-10.0953
お酒	-10.0954
やめた	-10.0957
眠い	-10.0967
と思うんですけど	-10.0967
受ける	-10.0968
かったら	-10.0969
しないで	-10.0982
短	-10.0982
に入れて	-10.0984
上の	-10.1001
何だ	-10.1002
はっ	-10.1007
あれだよ	-10.1013
買ってきて	-10.1017
ですねー	-10.102
結婚した	-10.1021
送る	-10.1024
すごいねー	-10.1029
しな	-10.1034
の人に	-10.1038
走って	-10.1054
隣の	-10.1059
みたいなやつ	-10.106
っていったら	-10.1065
撮る	-10.1065
たときに	-10.107
もあって	-10.1076
はどう	-10.1078
があってー	-10.1083
はいはいはい	-10.1091
クリ	-10.1093
なると	-10.1096
探	-10.1111
んだけれど	-10.1114
んか	-10.1115
言うの	-10.1117
生まれた	-10.1123
受けて	-10.1124
としたら	-10.1126
その方が	-10.1127
気づ	-10.1138
んだけどさー	-10.1142
やったの	-10.1155
それだったら	-10.1156
ちゃんも	-10.1159
とり	-10.1162
あるでしょう	-10.1163
医	-10.1164
増	-10.1167
庭	-10.1168
段	-10.1168
演	-10.1168
それぞれ	-10.1168
修	-10.1168
位	-10.1169
影	-10.117
脳	-10.117
豆腐	-10.117
もらおう	-10.117
等	-10.117
a	-10.117
フォー	-10.117
すげー	-10.1171
こたつ	-10.1171
年齢	-10.1171
見つけ	-10.1172
喜んで	-10.1172
ぜひ	-10.1176
どっかで	-10.1177
のように	-10.1178
なよ	-10.1185
着物	-10.1185
エビ	-10.1194
今日の	-10.1196
2000	-10.12
そういうとこ	-10.1203
ないように	-10.1211
気持ち悪い	-10.1214
高く	-10.1229
動か	-10.1235
ないんだよね	-10.1241
静か	-10.1244
でもまあ	-10.125
そういう人	-10.1254
どこか	-10.1263
見せて	-10.1264
そうかなー	-10.1264
あのさ	-10.127
チェック	-10.127
ーと思って	-10.1276
もさー	-10.1278
わからないけど	-10.1282
だと思って	-10.1288
特別	-10.1288
ショック	-10.1291
が来る	-10.1291
抜け	-10.1295
してね	-10.13
壊れ	-10.1304
ちら	-10.1316
プレ	-10.1324
るやつ	-10.1328
るでしょう	-10.1331
さんとか	-10.1333
来たの	-10.1333
っきり	-10.1334
決めて	-10.1337
ーみたいな	-10.1341
22	-10.1346
まちがえ	-10.1349
るんですか	-10.1351
行ったとき	-10.1352
上に	-10.1365
持ってくる	-10.137
って書いてある	-10.137
に来る	-10.1373
慣れて	-10.1384
仲	-10.1386
湯	-10.1388
以外	-10.1392
おいしく	-10.1396
90	-10.1397
混	-10.1398
クロ	-10.1403
接	-10.1406
格	-10.1407
装	-10.1407
すっごく	-10.1407
乾	-10.1408
ページ	-10.1408
そこら辺	-10.1408
チョコ	-10.1408
畳	-10.1408
危険	-10.1408
状況	-10.1409
紅茶	-10.1409
可能性	-10.1409
卒論	-10.1409
おなか	-10.141
ソース	-10.1413
ていうの	-10.1413
やから	-10.142
つぶれ	-10.1423
あーん	-10.1429
めっちゃ	-10.1433
にさー	-10.1433
バイ	-10.1437
って書いてあった	-10.1439
リンゴ	-10.1442
ないか	-10.1442
何だか	-10.1445
君の	-10.1448
たわけ	-10.1451
ぐらいしか	-10.1456
スター	-10.146
んだろうけど	-10.1464
とかを	-10.1476
の方で	-10.1479
ティー	-10.1492
今でも	-10.1498
ブルー	-10.1507
大変だった	-10.151
るのが	-10.1515
有名	-10.1516
次の日	-10.1532
だってさー	-10.1538
あかん	-10.1538
、12	-10.1539
あのねー	-10.1542
の場合は	-10.1548
あったよ	-10.1548
ごと	-10.1552
ちゃい	-10.1552
ーとか思って	-10.1553
よくわからない	-10.1559
やつが	-10.157
してたの	-10.1574
寝てる	-10.1576
ラブ	-10.1583
息子	-10.1584
違った	-10.1585
そのころ	-10.1586
と思ったけど	-10.1588
いいと思う	-10.1603
らず	-10.1612
まま	-10.1615
黒い	-10.1617
カバ	-10.1622
続けて	-10.1629
どっかに	-10.1635
すること	-10.1643
ファ	-10.1649
谷	-10.1651
骨	-10.1652
ヨ	-10.1652
継	-10.1652
年賀状	-10.1652
牛乳	-10.1652
しょっちゅう	-10.1653
直接	-10.1653
建物	-10.1653
学生が	-10.1654
さっきの	-10.1656
後期	-10.1657
どうすんの	-10.166
ょ	-10.1662
あったかい	-10.1664
いやあ	-10.1664
だったのね	-10.1669
方向	-10.1669
お腹	-10.1679
地方	-10.1683
ステ	-10.1683
が来た	-10.1685
じゃないか	-10.1686
そうや	-10.1688
とこで	-10.1692
向こうに	-10.1693
立って	-10.1694
寄	-10.1701
張り	-10.1708
言えば	-10.1708
ときにー	-10.171
いいですか	-10.1719
生まれ	-10.1719
っといて	-10.1727
だったよね	-10.1729
空いて	-10.1732
だけは	-10.1734
好きで	-10.1745
ますから	-10.1748
ですけどね	-10.1754
そういうのを	-10.176
があれば	-10.1766
っていうから	-10.1769
走	-10.1773
それまで	-10.1773
眠	-10.1788
わたしの	-10.179
夜中	-10.1791
何の	-10.1792
決まった	-10.1801
くん	-10.1802
落ちた	-10.1802
がいて	-10.1807
すぎて	-10.1811
中で	-10.1813
いいですよ	-10.1813
子どもの	-10.1819
話をして	-10.1831
確かにね	-10.1836
なんだか	-10.1837
んじゃう	-10.1837
もんな	-10.1844
いいじゃない	-10.1846
なんかちょっと	-10.1849
こそ	-10.1851
たもん	-10.1857
思え	-10.1872
追	-10.1883
ノー	-10.1891
落ちて	-10.1893
ありがと	-10.1898
族	-10.19
雨	-10.1901
造	-10.1901
ベッド	-10.1901
非常に	-10.1901
しまって	-10.1902
共	-10.1902
あれっ	-10.1902
貧	-10.1902
勝	-10.1902
坊	-10.1902
検索	-10.1902
羽	-10.1902
揚げ	-10.1902
ラジオ	-10.1902
いただいて	-10.1902
修士	-10.1903
結果	-10.1903
岡山	-10.1903
神戸	-10.1903
時給	-10.1904
ペン	-10.1906
国語	-10.1906
コピー	-10.1907
150	-10.191
行っちゃう	-10.191
中級	-10.1911
っていうので	-10.1919
付き	-10.192
くさい	-10.1931
書いてあって	-10.1932
サー	-10.1934
一生	-10.1938
かける	-10.1942
その人は	-10.1945
ありません	-10.1947
去年の	-10.1972
どうかな	-10.1985
とさー	-10.1986
踊り	-10.1997
もないし	-10.1997
なんでしょう	-10.1999
の子が	-10.2008
壊	-10.201
聞いてない	-10.2013
んじゃなくて	-10.2022
やし	-10.2028
院生	-10.2033
書いてる	-10.2034
普通は	-10.2039
んねん	-10.2056
飲	-10.2067
出さ	-10.2069
手を	-10.2075
だったね	-10.2077
もらい	-10.2078
そうなんです	-10.2089
結局は	-10.209
の中の	-10.2093
いいのか	-10.2096
きてる	-10.2097
だめだよ	-10.2105
を作って	-10.2118
あるし	-10.2121
降り	-10.2131
いいわ	-10.2132
雪が	-10.2133
なと思った	-10.2133
が出て	-10.2138
晩	-10.2143
軽	-10.2144
っとか言って	-10.2146
いつか	-10.2148
っくり	-10.2149
窓	-10.2157
計	-10.2157
ぬ	-10.2158
居	-10.2158
めちゃくちゃ	-10.2158
た方がいい	-10.2158
隠	-10.2159
o	-10.2159
板	-10.2159
サークル	-10.2159
こんにちは	-10.2159
堂	-10.2159
突然	-10.2159
スーパー	-10.2159
野球	-10.2159
公園	-10.2159
ほーんと	-10.216
ミカン	-10.216
移動	-10.2161
返事	-10.2161
からさあ	-10.2162
働く	-10.2164
ポン	-10.2166
さらに	-10.217
ブー	-10.2172
このまま	-10.2173
エン	-10.2173
そんとき	-10.2173
選んで	-10.2173
たじゃん	-10.2187
立つ	-10.2192
笑い	-10.2202
がないから	-10.2203
みたいなこと	-10.2205
決ま	-10.2206
んなら	-10.2212
時間も	-10.2213
暮らし	-10.2214
そうだけど	-10.2217
買ったの	-10.222
録って	-10.2228
列	-10.2232
円とか	-10.224
あそこは	-10.2241
っていうのがあって	-10.2242
言っても	-10.2254
飼	-10.2257
いるわけ	-10.2265
こっちが	-10.2265
なんかそういう	-10.2273
実際に	-10.2279
赤ちゃん	-10.228
続け	-10.2282
なんの	-10.2285
作ってる	-10.2289
しま	-10.2292
なんかその	-10.2298
いいこと	-10.2311
切る	-10.2312
におい	-10.2322
近くに	-10.2324
最近は	-10.2324
飲んだ	-10.2337
なんですよね	-10.2345
ちゃうの	-10.2349
日本語を	-10.235
テロ	-10.2358
の友達	-10.236
んけど	-10.2363
さい	-10.2364
リング	-10.2367
なかったよ	-10.2376
ハー	-10.2377
たか	-10.2379
って言ってる	-10.2382
やれ	-10.2391
ずら	-10.2397
取りに	-10.2399
替	-10.2399
な人	-10.2401
やつは	-10.2402
最	-10.2415
学科	-10.2417
そうすっと	-10.242
我慢	-10.242
気もする	-10.2421
ドラマ	-10.2422
刺	-10.2422
いっぺん	-10.2422
ぎりぎり	-10.2422
藤	-10.2422
止まって	-10.2422
船	-10.2422
確認	-10.2422
事故	-10.2422
給料	-10.2422
辞書	-10.2422
それなりに	-10.2422
何となく	-10.2422
兄弟	-10.2425
どうなの	-10.2425
つかない	-10.2427
パンダ	-10.2428
皆さん	-10.2433
そこが	-10.2434
大学は	-10.2438
だねー	-10.2439
前期	-10.244
まちがい	-10.2443
ガン	-10.2451
2、3	-10.2458
なくない	-10.2467
無理だ	-10.247
トン	-10.2471
入ってて	-10.2474
やり方	-10.2482
いっぱいいる	-10.2487
お肉	-10.2487
っしょ	-10.2493
なんだろ	-10.2494
もういい	-10.2496
いたから	-10.2499
勤め	-10.2502
ってのが	-10.251
と思います	-10.2512
えっとー	-10.2515
かえって	-10.2517
かっていうと	-10.2517
だからその	-10.2519
聞か	-10.2524
真ん中	-10.2527
もしない	-10.2534
かっこ	-10.2538
したけど	-10.2544
しょうがないから	-10.2547
でやる	-10.2549
仕事を	-10.2552
そら	-10.2559
簡単に	-10.256
死んだ	-10.2564
ブリ	-10.2569
あんとき	-10.2569
もう少し	-10.2579
でさあ	-10.2585
してください	-10.2588
ったりとか	-10.2592
違うよ	-10.2594
グラ	-10.2595
るじゃん	-10.2604
と思わない	-10.261
んなって	-10.2617
ちゅ	-10.2617
、20	-10.2633
みたいね	-10.2634
ニコ	-10.2638
結婚して	-10.264
食って	-10.2641
人がいて	-10.2652
向こうは	-10.266
弱	-10.2661
わら	-10.268
遊	-10.268
比べ	-10.2681
踏	-10.2687
筋	-10.269
塗	-10.2692
アパート	-10.2692
ほんっとに	-10.2692
参	-10.2692
遣	-10.2692
提	-10.2692
缶	-10.2692
ここら辺	-10.2692
NHK	-10.2692
お兄さん	-10.2692
t	-10.2692
図書館	-10.2692
評価	-10.2692
ぷ	-10.2692
彼氏	-10.2693
参加	-10.2693
番組	-10.2693
信じ	-10.2695
すごかった	-10.2696
逃げ	-10.2696
本を	-10.2698
見ても	-10.2698
っていうところ	-10.27
やす	-10.2703
っていうことは	-10.2705
ビル	-10.2706
あのころ	-10.2708
負け	-10.2708
バラ	-10.2709
別れ	-10.271
27	-10.2712
あれじゃない	-10.2724
かけた	-10.2725
やねん	-10.2727
やつを	-10.2731
もいいし	-10.2733
じゃんねー	-10.2738
合って	-10.2741
年目	-10.2743
たりして	-10.2746
さすがに	-10.2746
だろうと思って	-10.2748
簡単な	-10.2749
かなって	-10.2749
お母さんと	-10.2753
持ってない	-10.2754
立て	-10.2761
辺	-10.2761
それでー	-10.2768
簡単	-10.2768
だろうけど	-10.277
日間	-10.277
送り	-10.2774
それはもう	-10.2778
そのときは	-10.2786
掛け	-10.2786
の間	-10.2791
なあと思って	-10.2792
の前で	-10.2794
のにー	-10.2804
がついて	-10.2807
いくつか	-10.2809
るように	-10.2811
遊び	-10.2826
コロ	-10.2828
ないのに	-10.283
きゃ	-10.2832
殺	-10.2843
色が	-10.2845
もあった	-10.2855
つな	-10.2865
なんや	-10.2868
とかいうの	-10.2871
大学に	-10.2871
お金を	-10.2873
んじゃないですか	-10.2879
のせい	-10.2885
微妙に	-10.2888
いくと	-10.2889
ゴー	-10.289
言ってて	-10.2894
テン	-10.2905
なかったっけ	-10.2907
ええー	-10.2908
言ってんの	-10.2925
はだめ	-10.2931
ふうに	-10.2933
ちゃいけない	-10.2934
はまだ	-10.2939
日が	-10.2942
振	-10.2942
ないんですよ	-10.2945
なさそう	-10.2948
るんですけど	-10.2949
大学で	-10.2949
酒	-10.295
は別に	-10.2951
周	-10.2952
測	-10.2969
郎	-10.2969
ドイツ	-10.2969
客	-10.2969
駐車場	-10.297
コミュニケーション	-10.297
同級生	-10.297
塾	-10.297
率	-10.297
ドレス	-10.297
改	-10.297
093	-10.297
宿題	-10.297
迷惑	-10.297
−	-10.297
最低	-10.297
吹	-10.297
始まる	-10.297
すご	-10.297
幸せ	-10.2971
毎回	-10.2973
冷たい	-10.2974
どちら	-10.2974
5、6	-10.2978
それがね	-10.2989
人たちが	-10.299
あげた	-10.2991
トラ	-10.2995
日ぐらい	-10.3
食べてる	-10.3001
ビー	-10.3002
もうすぐ	-10.3005
っていうのがある	-10.3007
したから	-10.3009
換え	-10.3009
なかったんだけど	-10.3019
私なんか	-10.3022
変える	-10.3022
どっちが	-10.303
そういうとき	-10.3031
を入れて	-10.3032
のとこに	-10.3033
みたいなのが	-10.3035
撮った	-10.3037
があったの	-10.3038
マック	-10.3041
まじ	-10.3043
をさ	-10.3044
よくわかんないけど	-10.3045
行ったり	-10.3048
うー	-10.3052
だんなさん	-10.3054
方で	-10.3054
その前に	-10.3056
何それ	-10.3067
バック	-10.307
続	-10.3072
しながら	-10.309
ようなこと	-10.3091
こともある	-10.3092
思ったけど	-10.3097
ほんとにー	-10.31
に近い	-10.3109
っていうことで	-10.3112
歩き	-10.3113
全然わかんない	-10.3114
貸して	-10.3116
日本人の	-10.3118
だけどさ	-10.312
そしたらね	-10.3123
の研究	-10.3124
みたいなことを	-10.3126
一回	-10.313
っていう人	-10.3138
やっても	-10.3147
言葉を	-10.3167
お母さんに	-10.3167
いち	-10.3168
トロ	-10.3171
主人	-10.3173
っぽく	-10.3176
なんない	-10.318
あそこで	-10.3184
やってるの	-10.3186
食べれる	-10.3192
って言ってて	-10.3194
人を	-10.3195
しゃべってる	-10.3196
を買って	-10.3197
なにか	-10.3202
声が	-10.321
ときにさ	-10.3218
連れてって	-10.3226
わけだから	-10.3229
ようと	-10.3232
つつ	-10.3235
呼	-10.3243
今週	-10.3243
もうなんか	-10.3244
一番最初	-10.3248
なるほどねー	-10.3248
ったって	-10.3251
団	-10.3252
飯	-10.3252
過	-10.3253
務	-10.3254
洋	-10.3254
テーブル	-10.3255
問	-10.3255
想像	-10.3255
カナダ	-10.3255
鉄	-10.3255
総	-10.3255
相談	-10.3255
ホーム	-10.3255
肌	-10.3255
賞	-10.3255
草	-10.3255
ツアー	-10.3256
王	-10.3256
オペラ	-10.3256
敷	-10.3256
補	-10.3256
知り合い	-10.3256
木曜日	-10.3256
〜	-10.3256
拾	-10.3256
階段	-10.3256
文句	-10.3257
相当	-10.3257
性格	-10.3257
集まって	-10.3258
057	-10.3258
体育	-10.3258
市に居住	-10.3258
不安	-10.3259
安心	-10.3259
ベル	-10.326
付いて	-10.3261
仲間	-10.3261
万ぐらい	-10.3266
だけどさー	-10.3267
してもらって	-10.3274
まじめ	-10.3274
ちゃってさ	-10.3277
何回	-10.3281
現実	-10.3282
いると	-10.3287
そのまんま	-10.3287
そこへ	-10.3291
何ていう	-10.3297
どうだった	-10.3298
が入ってる	-10.3301
いる人	-10.3302
ある意味	-10.3303
最後まで	-10.3306
んでー	-10.3315
とは思う	-10.3321
くださいって	-10.3321
3000	-10.3322
とか思った	-10.333
ないとだめ	-10.3336
いうふうに	-10.3337
いろいろある	-10.3337
時間に	-10.3342
その日	-10.3345
通る	-10.335
考えた	-10.3352
使い方	-10.3355
じゃないや	-10.3356
ぐらいまで	-10.3356
るとか	-10.336
でしょうね	-10.336
住んでる	-10.337
方に	-10.3371
見た目	-10.3378
ピッ	-10.3385
いいのよ	-10.3386
彼が	-10.3389
すぐに	-10.3391
しゃべった	-10.3393
わかるけど	-10.3395
あほ	-10.3397
お水	-10.34
ります	-10.3404
勢い	-10.3408
まで行って	-10.341
こっちは	-10.3411
ますね	-10.3414
くなってきた	-10.3416
買ってきた	-10.342
悪かった	-10.3423
いろんなこと	-10.3428
とか言ったら	-10.3429
あったんだけど	-10.3429
した方がいい	-10.3429
変わ	-10.3429
その前	-10.3439
にしろ	-10.3441
今年の	-10.3441
手が	-10.3443
どうしたの	-10.3447
が多いから	-10.3447
たった	-10.3453
いいです	-10.3455
まち	-10.3456
とか言ってさ	-10.3459
いじ	-10.3461
できるの	-10.3461
まだまだ	-10.3466
切った	-10.347
なくなっちゃう	-10.3471
きました	-10.3478
何十	-10.3483
やってんの	-10.3483
女の	-10.3484
好きだった	-10.3484
というのが	-10.3484
意外	-10.3484
後ろに	-10.3486
友達に	-10.349
まん	-10.3497
そうかもしれない	-10.3519
覚	-10.3525
なくちゃいけない	-10.3529
老	-10.3529
あったけど	-10.3535
飾	-10.3537
並	-10.3538
ている	-10.3538
をやる	-10.354
たっけ	-10.3543
ミルク	-10.3544
版	-10.3545
孫	-10.3545
全体	-10.3545
菜	-10.3546
しといて	-10.3547
カメラ	-10.3548
角	-10.3549
恐	-10.3549
脱	-10.3549
鍋	-10.3549
なるべく	-10.355
波	-10.355
お医者さん	-10.355
買おう	-10.355
柄	-10.355
子さん	-10.355
すべて	-10.355
多少	-10.3551
こっから	-10.3551
新宿	-10.3551
ありえない	-10.3552
ゼロ	-10.3552
ひょ	-10.3553
になったの	-10.3554
頼む	-10.3554
おじいちゃん	-10.3557
そうだと思う	-10.356
年末	-10.3561
状態で	-10.3561
お姉さん	-10.3563
物語	-10.3566
有名な	-10.357
番目	-10.3575
時とか	-10.3575
できます	-10.3575
あの人は	-10.3579
しちゃ	-10.3583
最初から	-10.3585
ラス	-10.3585
世の中	-10.3587
ったりする	-10.3589
そういう意味	-10.3598
君は	-10.3609
いえいえ	-10.3612
何回も	-10.3614
持つ	-10.3615
させる	-10.3618
思わない	-10.3619
流れ	-10.3622
仕事が	-10.3624
おり	-10.3633
太い	-10.3636
っていっても	-10.3637
してきた	-10.3647
じゃないかな	-10.3652
ってさあ	-10.3654
あれだけど	-10.3663
着く	-10.3663
失敗	-10.368
しまい	-10.368
世	-10.3689
になるから	-10.3691
欲	-10.3707
写真を	-10.3712
住んでた	-10.3714
決まってる	-10.3714
来るから	-10.3717
きたの	-10.3718
使え	-10.3723
っちゃいけない	-10.3723
次は	-10.373
ましたね	-10.3731
掛けて	-10.3736
なーん	-10.3743
部屋に	-10.3743
45	-10.3747
直し	-10.3754
周りの	-10.3771
深	-10.3781
おもしろく	-10.3795
気をつけ	-10.3795
しなきゃ	-10.3801
るのかな	-10.3806
教えてる	-10.3806
話は	-10.3811
えば	-10.3812
ぶら	-10.3816
変わってる	-10.3821
だい	-10.3828
のような	-10.3845
視	-10.3851
支	-10.3852
構	-10.3852
謝	-10.3852
友	-10.3852
メートル	-10.3852
かもしれません	-10.3853
中途半端	-10.3853
ウナギ	-10.3853
新幹線	-10.3853
スカート	-10.3853
免許	-10.3853
稼	-10.3853
懐かしい	-10.3853
納得	-10.3853
髪の毛	-10.3853
券	-10.3853
時点で	-10.3853
ジャン	-10.3853
秒	-10.3853
わかりました	-10.3853
キャンプ	-10.3853
文章	-10.3853
地域	-10.3853
タクシー	-10.3854
予約	-10.3854
電話番号	-10.3854
うっそ	-10.3854
案外	-10.3854
家庭	-10.3856
打ち	-10.3856
ハリー	-10.3858
行動	-10.3858
バイク	-10.3858
やつで	-10.3862
地名	-10.3865
濃い	-10.3869
にとっては	-10.3869
お母さんの	-10.3874
死んで	-10.3879
になります	-10.388
ほいて	-10.3883
あっても	-10.3884
変えた	-10.3891
あとに	-10.3894
考えたら	-10.3894
かかって	-10.3897
今も	-10.3902
いらん	-10.3902
週間ぐらい	-10.391
わりに	-10.3915
るもん	-10.3916
1、2、3	-10.3918
何て	-10.3923
だったと思う	-10.3927
怒って	-10.3928
作れ	-10.3933
んだけれども	-10.3941
人生	-10.3947
へ行って	-10.395
話してる	-10.3951
行ったことある	-10.3955
向け	-10.3956
ものすごく	-10.3957
読め	-10.397
に住んでる	-10.3974
にしようかな	-10.3979
食べるの	-10.3987
そうじゃなくて	-10.3989
部活	-10.3989
働いてる	-10.3992
パッと	-10.3992
あるわけ	-10.4008
確	-10.4015
って言うと	-10.4017
替えて	-10.4019
昨日の	-10.4023
微妙な	-10.4031
調べ	-10.4035
っす	-10.4046
ですもんね	-10.4047
いいのに	-10.4048
好きなんだ	-10.4052
学部の	-10.4057
なーって	-10.4065
そんなことないよ	-10.4069
せば	-10.4075
ありますね	-10.4078
つもりで	-10.408
だっていう	-10.409
おもしろいね	-10.4105
分の	-10.4107
だめだった	-10.4108
苦	-10.4115
勉強する	-10.4116
車が	-10.4116
私はね	-10.412
遅	-10.4123
ところを	-10.4125
目の	-10.4146
バリ	-10.4147
ちゃったの	-10.4153
なっちゃって	-10.4156
そりゃあ	-10.4157
食べてた	-10.4157
ゼ	-10.4161
帳	-10.4161
いたい	-10.4163
牛	-10.4164
統	-10.4164
ちょうだい	-10.4165
布	-10.4165
デザート	-10.4165
すみません	-10.4165
臭	-10.4165
チョコレート	-10.4165
観光	-10.4165
098	-10.4165
歳ぐらい	-10.4165
悩	-10.4165
眼鏡	-10.4165
博士	-10.4165
すげえ	-10.4165
愛知県	-10.4166
感覚	-10.4167
文字化	-10.4167
医者	-10.4167
でっかい	-10.4168
おばちゃん	-10.4169
アルバイト	-10.417
漢方	-10.4171
ないんだって	-10.4171
015	-10.4174
飲み会	-10.4177
どうしよ	-10.4178
聞かない	-10.418
サイ	-10.4182
見たことない	-10.4186
すばらしい	-10.4186
完全に	-10.4187
何て言う	-10.4195
年で	-10.4199
締め	-10.421
やっ	-10.421
んですけれども	-10.4211
おでん	-10.4212
何時	-10.4223
どのぐらい	-10.4228
それか	-10.423
08	-10.4234
って言ったの	-10.4236
意外と	-10.4241
まちがえた	-10.4244
わからんけど	-10.4248
建て	-10.4248
年も	-10.425
いつまで	-10.4256
取れない	-10.4258
か知らないけど	-10.4264
上げて	-10.427
帰れ	-10.4271
ないもんね	-10.4278
の違い	-10.4295
落とし	-10.4299
の辺	-10.43
わけですよ	-10.4303
4、5	-10.4307
こっちの方が	-10.4313
たよね	-10.4315
色の	-10.432
別の	-10.4324
でもさあ	-10.4332
知らんけど	-10.4337
なんだけどね	-10.4349
私さー	-10.4351
生きてる	-10.4365
決	-10.4374
はいて	-10.4378
とこは	-10.4379
なんていうのかな	-10.438
バスで	-10.438
彼女は	-10.4382
っていうかさ	-10.4396
あるある	-10.4397
しょう	-10.4397
28	-10.4397
結婚する	-10.44
とかさあ	-10.4402
そういうもの	-10.4403
かなんかで	-10.4419
んですかね	-10.4419
プラ	-10.4422
ックス	-10.4422
汚	-10.4424
だったか	-10.443
ですねえ	-10.4433
年後	-10.4435
があったから	-10.4437
学年	-10.4449
楽しそう	-10.4451
聞くと	-10.4457
ないですよね	-10.446
フランス人	-10.4461
そのうち	-10.4481
崎	-10.4484
編	-10.4485
放	-10.4487
養	-10.4487
夫婦	-10.4487
密	-10.4487
ソフト	-10.4488
モデル	-10.4488
模	-10.4488
キャベツ	-10.4488
研修	-10.4488
ポッター	-10.4488
テキスト	-10.4488
紅葉	-10.4488
カンツオーネ	-10.4488
ボランティア	-10.4488
動物園	-10.4488
大きさ	-10.4489
東急	-10.4489
単語	-10.4489
安全	-10.449
細かい	-10.4491
登録	-10.4491
冬休み	-10.4492
いただきます	-10.4492
ゴム	-10.4493
ぱっと	-10.4495
混んで	-10.4496
きゅ	-10.4499
ハイ	-10.4501
ボン	-10.4501
気になる	-10.4505
シーン	-10.4505
こりゃ	-10.4508
入れるの	-10.4508
見ながら	-10.4509
だと思うよ	-10.451
あんなに	-10.451
来たとき	-10.451
遊んで	-10.4515
お湯	-10.4516
を使って	-10.4517
国立	-10.4524
チン	-10.4528
ドア	-10.4531
何歳	-10.4535
向か	-10.4561
笑って	-10.4562
らしいのね	-10.4562
んやんか	-10.4564
言っとった	-10.4568
ぶり	-10.4575
わよね	-10.4582
あるじゃない	-10.459
もうそろそろ	-10.4591
かれて	-10.4593
のときの	-10.4593
人数	-10.4602
があったら	-10.4603
みれば	-10.4605
に入った	-10.461
ずれ	-10.463
届	-10.4631
29	-10.4639
そりゃそう	-10.464
作るの	-10.4641
すか	-10.4642
残る	-10.4643
はいはいはいはい	-10.4645
育て	-10.4646
に行ったの	-10.4649
アメリカ人	-10.4654
要は	-10.4654
ここが	-10.4656
出してる	-10.4659
りたい	-10.4659
食う	-10.4671
大変だよね	-10.4681
なんだから	-10.4682
いろいろと	-10.4684
方は	-10.4687
なーんか	-10.4688
どこまで	-10.4688
あんなん	-10.469
しとった	-10.4698
たのよ	-10.4702
終	-10.4716
朝から	-10.4716
ができた	-10.4719
取られる	-10.4722
学校に	-10.4725
おいしいよ	-10.4733
てか	-10.4735
そうなんだよね	-10.4739
単	-10.4744
みたいだけど	-10.4756
トル	-10.476
ゃ	-10.4762
したんだけど	-10.4771
引っ越し	-10.4787
あるかな	-10.4805
だれに	-10.4805
程度	-10.4805
さんて	-10.4806
会社に	-10.4812
図	-10.4818
命	-10.4819
万とか	-10.4819
勘	-10.482
豊	-10.482
他	-10.482
秘	-10.482
ロンドン	-10.4821
規	-10.4821
検	-10.4821
輪	-10.4821
ヨーロッパ	-10.4821
郵便局	-10.4821
午前中	-10.4821
傷	-10.4821
ショップ	-10.4821
さみしい	-10.4821
沢	-10.4821
滑	-10.4821
葉っぱ	-10.4821
原因	-10.4821
将来	-10.4821
展	-10.4822
似合う	-10.4822
マンション	-10.4823
しょうゆ	-10.4823
名前が	-10.4823
変わらない	-10.4824
ぐらいかな	-10.4824
東海	-10.4825
立場	-10.4825
感動	-10.4826
映画館	-10.4826
選ぶ	-10.4826
はじめ	-10.4827
受けた	-10.4827
韓国語	-10.4829
手作り	-10.483
あまりにも	-10.483
飲み物	-10.483
お風呂	-10.4831
国内	-10.4832
手紙	-10.4834
両親	-10.4834
コマ	-10.4844
きれ	-10.4848
おもち	-10.4853
すし	-10.4857
都	-10.4859
薄い	-10.486
書け	-10.486
食べよう	-10.486
弱い	-10.486
自分に	-10.4864
何ていうのかな	-10.4869
の方の	-10.4878
ですからね	-10.4879
こういうこと	-10.488
日本は	-10.4883
天気	-10.489
まんま	-10.4891
見えて	-10.4891
持ってきた	-10.4892
危	-10.4897
半年	-10.4899
微妙だ	-10.4901
ジュ	-10.4904
込ま	-10.4907
なくってー	-10.491
電車で	-10.4918
始めて	-10.4922
学生に	-10.4932
違う違う違う	-10.494
に入ってる	-10.4943
ときとか	-10.4948
あるでしょ	-10.4948
持ってく	-10.4948
世話	-10.4951
下りて	-10.4955
見てたら	-10.4959
ってか	-10.4962
かもしれんけど	-10.4976
んやね	-10.4977
友達と	-10.4978
違うんだ	-10.4988
自体が	-10.4997
見てると	-10.5001
の間に	-10.5006
においが	-10.5014
どうなる	-10.5017
どうしようかな	-10.5018
してくる	-10.5019
そこを	-10.5025
ですよねー	-10.5038
いうと	-10.504
なわけ	-10.5051
しなかった	-10.506
送った	-10.5063
ていうのは	-10.5068
もち	-10.5071
いき	-10.5072
まく	-10.5078
やればいい	-10.508
ひと	-10.508
なぜ	-10.508
とか言ってて	-10.508
しかもさ	-10.5081
全然知らない	-10.5086
してます	-10.5107
来たら	-10.511
フランスに	-10.5117
ピン	-10.512
速	-10.5128
目に	-10.513
まれ	-10.513
に行くの	-10.5143
あなたは	-10.5145
大変だね	-10.5148
もいいけど	-10.5152
付けて	-10.5153
子たち	-10.5154
能	-10.5159
四	-10.5162
具	-10.5163
給	-10.5163
ロン	-10.5163
八	-10.5165
整	-10.5165
達	-10.5165
軒	-10.5165
騒	-10.5165
いちいち	-10.5165
2〜3	-10.5166
サービス	-10.5166
きちんと	-10.5166
渋	-10.5166
官	-10.5166
盗	-10.5166
弾	-10.5166
栗	-10.5166
夫	-10.5166
ストーリー	-10.5166
スープ	-10.5166
バルチス	-10.5166
プレゼント	-10.5166
始まった	-10.5166
毎週	-10.5166
031	-10.5166
計画	-10.5166
担当	-10.5167
当然	-10.5167
注文	-10.5167
パーティー	-10.5167
近所	-10.5168
増えた	-10.5168
理解	-10.5168
遊ぶ	-10.5169
先週	-10.5169
足りない	-10.5169
キュ	-10.517
人だけ	-10.5171
思うんだけど	-10.5172
待ち	-10.5173
向こうも	-10.5173
しろ	-10.5174
休む	-10.5175
ノン	-10.5175
ベン	-10.5177
だけども	-10.5178
数学	-10.5178
しねー	-10.5182
そうなんや	-10.5185
言ってくれ	-10.5187
分野	-10.5188
文学部	-10.5188
ちょうどいい	-10.519
021	-10.5192
ゅ	-10.5198
そういうのも	-10.5203
割り	-10.5203
ようになって	-10.5204
のり	-10.5204
なんて言う	-10.5218
やられた	-10.5223
人だったら	-10.5225
やってくれ	-10.5226
とかなんとか	-10.5227
ちょっ	-10.5229
どうするの	-10.5234
地下	-10.524
せい	-10.5241
何気に	-10.5243
これね	-10.5245
あると思う	-10.5246
ると思う	-10.525
しなさい	-10.5251
私立	-10.5253
いいかなー	-10.5257
ようにして	-10.5257
正月	-10.526
使ってた	-10.5265
いるよ	-10.5268
の人と	-10.527
言うけど	-10.5273
期間	-10.5279
の人とか	-10.5282
ハッ	-10.5289
にゃ	-10.529
あーあーあー	-10.529
っていう意味	-10.5293
あたしたち	-10.5296
ぐらいは	-10.5297
聞かせ	-10.5301
ありそう	-10.5301
のかもしれないけど	-10.5308
だろうし	-10.5317
うつ	-10.5317
ん中で	-10.5319
300	-10.5331
楽しく	-10.5331
自分は	-10.5338
りました	-10.534
走る	-10.5345
すごいいい	-10.5347
ないのよ	-10.5351
今日も	-10.5363
作ったの	-10.5365
だしね	-10.5366
ということで	-10.5375
とは違う	-10.5378
思っちゃった	-10.5379
あるんじゃない	-10.5385
メールで	-10.5386
いらした	-10.5389
キー	-10.5396
と言えば	-10.54
いいかもしれない	-10.5403
やる気	-10.541
かわからん	-10.5411
はあるけど	-10.5411
おいし	-10.5416
そういうのって	-10.5417
くわ	-10.542
手前	-10.5422
おった	-10.5425
ましたけど	-10.5427
そうなんですよ	-10.5429
かわからない	-10.5431
知らないよ	-10.5435
待ってる	-10.5436
ないのね	-10.5437
とか何とか	-10.5437
本人	-10.5439
その日に	-10.544
できなかった	-10.5451
りすると	-10.5458
おっしゃ	-10.546
授業が	-10.5461
に行ったら	-10.5463
見かけ	-10.5468
スポーツ	-10.5475
うるさいな	-10.5478
んですけれど	-10.548
おもしろ	-10.549
助け	-10.5501
を使う	-10.5504
われて	-10.551
ぺ	-10.5515
州	-10.552
極	-10.5521
泊まり	-10.5521
材	-10.5522
卒	-10.5522
お勧め	-10.5522
派	-10.5522
節	-10.5522
散	-10.5523
杯	-10.5523
キムチ	-10.5523
講師	-10.5523
条件	-10.5523
環境	-10.5523
ジュース	-10.5523
胃	-10.5523
オレンジ	-10.5523
散歩	-10.5523
江	-10.5523
札	-10.5523
いまいち	-10.5523
ウィ	-10.5524
笑える	-10.5524
アジア	-10.5524
マレーシア	-10.5524
自身	-10.5524
洋服	-10.5524
反応	-10.5524
在住	-10.5524
資格	-10.5525
そんだけ	-10.5525
むしろ	-10.5526
道路	-10.5526
モード	-10.5527
そうなのよ	-10.5528
ダンス	-10.553
コート	-10.5531
じょ	-10.5532
ミニ	-10.5533
わかってない	-10.5536
これとこれ	-10.5539
研究室	-10.554
なんて言って	-10.5543
言ってたよ	-10.555
苦し	-10.555
言語学	-10.5553
カン	-10.5553
トム	-10.5554
マル	-10.5559
んだな	-10.556
自転車で	-10.5568
やもん	-10.557
109	-10.5575
たくさんある	-10.5576
わけじゃん	-10.5576
こい	-10.5582
に行くと	-10.5593
よくわからん	-10.5598
ったんだけど	-10.5602
何人か	-10.562
書くの	-10.5633
込	-10.5634
そっちの方が	-10.5639
直して	-10.5646
グル	-10.5647
じゃないよね	-10.5658
いいよねー	-10.5658
ときって	-10.5662
来てくれ	-10.5663
多く	-10.5664
始め	-10.5671
114	-10.5677
分けて	-10.5683
むだ	-10.569
なんじゃないの	-10.5701
っていった	-10.5702
一人で	-10.5714
モー	-10.5717
増えて	-10.5719
怖	-10.5721
ライト	-10.5721
上から	-10.5722
なんでそんな	-10.5733
したりとか	-10.5734
変えて	-10.5739
合わ	-10.5743
だめなんだ	-10.5753
おかしく	-10.5755
ようになる	-10.5762
行ったときに	-10.5768
らなきゃいけない	-10.577
気になって	-10.5782
はーん	-10.5784
せない	-10.5785
その子は	-10.5786
返し	-10.5789
言うんだ	-10.58
出さない	-10.5803
を見る	-10.5806
勉強した	-10.5814
取ってる	-10.5818
離れて	-10.5824
いいかも	-10.5829
かわかんないけど	-10.5829
さすが	-10.583
いっか	-10.5832
一番上	-10.5837
だと思うんだけど	-10.5853
使えない	-10.5856
だなあ	-10.5857
に行ったとき	-10.5862
死ぬ	-10.5865
来るの	-10.5871
開いて	-10.5871
寒く	-10.5872
の木	-10.5872
とかって言ってた	-10.5874
喜	-10.5885
痛くな	-10.5886
できれば	-10.5887
際	-10.5888
地元	-10.5889
講	-10.5889
然	-10.589
説	-10.589
放題	-10.589
有	-10.5891
劇	-10.5891
畑	-10.5891
類	-10.5891
局	-10.5892
ご存じ	-10.5892
があるわけ	-10.5892
テニス	-10.5892
京	-10.5892
九州	-10.5893
汁	-10.5893
備	-10.5893
ヌ	-10.5893
包	-10.5893
星	-10.5893
クリーム	-10.5893
省	-10.5893
たこ焼き	-10.5893
ハワイ	-10.5893
記念	-10.5894
032	-10.5894
奈良	-10.5894
あきらめ	-10.5894
つまり	-10.5894
ありがとうございました	-10.5894
計算	-10.5894
渋谷	-10.5894
注意	-10.5894
教材	-10.5894
機能	-10.5894
標準語	-10.5895
向	-10.5895
得意	-10.5895
面接	-10.5895
対応	-10.5895
ボタン	-10.5896
会議	-10.5897
演習	-10.5897
指定	-10.5897
ネット	-10.59
メモ	-10.59
スタート	-10.59
茶色	-10.5901
東北	-10.5901
男性	-10.5903
親切	-10.5904
向こうが	-10.5906
と思うから	-10.5906
どっちでもいい	-10.5906
泊まって	-10.5906
もしもし	-10.5906
カニ	-10.5906
どういう意味	-10.5908
の方から	-10.591
オン	-10.5912
フリー	-10.5913
低い	-10.5914
に関して	-10.5917
26	-10.592
でございます	-10.592
追い	-10.5921
に行ったときに	-10.5924
考え方	-10.5928
適当に	-10.5929
体力	-10.5929
の方も	-10.5933
休んで	-10.5939
頼んだ	-10.5943
行かなかった	-10.5946
ソー	-10.5953
ないんじゃない	-10.5956
まあいいや	-10.5963
生まれて	-10.5971
中心	-10.5973
こいつ	-10.5974
だよねえ	-10.5976
してたら	-10.5977
だれでも	-10.5979
知ってた	-10.5981
人が多い	-10.5985
おもしろいの	-10.5988
お母さんは	-10.5992
そっちに	-10.5995
出せ	-10.5996
卒業して	-10.5999
いいですよね	-10.5999
大きいの	-10.6
乗ってる	-10.6003
横に	-10.6009
みたいなところ	-10.6009
それじゃ	-10.6013
なんじゃない	-10.6014
こっちから	-10.6024
過ぎて	-10.6024
授業は	-10.6039
そんときに	-10.604
お父さんは	-10.604
あったから	-10.6041
言ったの	-10.6045
するじゃん	-10.6053
どうでもいい	-10.6064
してたから	-10.6064
しよっか	-10.6068
怒る	-10.607
行ったんだけど	-10.6073
飲まない	-10.6089
かわいいよね	-10.6091
京都に	-10.6096
やっとる	-10.6098
撮り	-10.6109
16	-10.6111
思うけど	-10.6115
そうだっけ	-10.6119
ん中	-10.6124
降る	-10.6124
ができて	-10.6125
終わってから	-10.613
わん	-10.6141
そっから	-10.6142
勤	-10.6155
暗	-10.6157
あるんですか	-10.6159
授業を	-10.6164
いい感じ	-10.6168
ん中に	-10.617
いいよー	-10.6176
とかだと	-10.6179
お母さんも	-10.618
いろんな人	-10.6184
書けない	-10.6199
その前の	-10.62
06	-10.6208
電話した	-10.6213
なのよね	-10.6215
英	-10.6222
げる	-10.623
あんまし	-10.6244
大丈夫だよ	-10.6249
イズ	-10.6251
息	-10.6255
いいけどさ	-10.6263
辞めた	-10.6264
降った	-10.6265
言ってたよね	-10.6272
行ったこと	-10.6274
試	-10.6275
港	-10.6276
経	-10.6277
順	-10.6277
在	-10.6277
報	-10.6277
プロジェクト	-10.6277
保険	-10.6277
努力	-10.6278
撃	-10.6278
税	-10.6278
桜	-10.6278
お土産	-10.6278
界	-10.6278
豆	-10.6278
風邪	-10.6278
どうのこうの	-10.6278
すーごい	-10.6278
悔	-10.6278
きょう	-10.6278
ロシア	-10.6278
領	-10.6278
河	-10.6278
酢	-10.6278
美術館	-10.6278
アクセント	-10.6278
ニュージーランド	-10.6278
講義	-10.6278
)	-10.6278
必死	-10.6278
033	-10.6278
梅	-10.6278
おしゃれ	-10.6278
**	-10.6278
幼稚園	-10.6278
面倒くさい	-10.6278
管理	-10.6279
んだろうって	-10.6279
営業	-10.6279
片づけ	-10.6279
賢	-10.6279
掛かる	-10.6279
小説	-10.628
定義	-10.628
地図	-10.628
髪型	-10.628
世代	-10.6281
三重	-10.6282
いただいた	-10.6283
なんですね	-10.6283
与え	-10.6284
新しく	-10.6285
市内	-10.6286
分かれて	-10.6286
だらけ	-10.6288
ダン	-10.6288
投げ	-10.629
ボール	-10.6292
悲しい	-10.6293
リスト	-10.6298
それ以外	-10.6305
それはある	-10.6312
速い	-10.6317
終わったら	-10.6319
われる	-10.6324
よくなる	-10.6326
韓国人	-10.6334
やめる	-10.6335
128	-10.6339
もらえない	-10.634
おいしくない	-10.6346
声で	-10.6347
よっか	-10.6347
なくちゃ	-10.6348
いくの	-10.635
もんねー	-10.6361
そうやね	-10.638
しょうが	-10.6385
できないから	-10.6385
1、2	-10.6386
困った	-10.6396
わけじゃないけど	-10.6399
友だちが	-10.641
に書いて	-10.6416
もらうの	-10.6423
落ちる	-10.6424
みたいよ	-10.6424
遅れて	-10.6432
くじ	-10.6438
覚える	-10.6449
着いた	-10.645
はしない	-10.6451
いったい	-10.6453
日まで	-10.6455
用意	-10.6488
と思うと	-10.6489
日本人は	-10.6491
が出てきて	-10.6492
してほしい	-10.6501
たまには	-10.6514
名前を	-10.6516
やっぱし	-10.6524
覚えてないけど	-10.6525
ちゃんとした	-10.6529
か何かで	-10.6533
したくない	-10.6538
みたいなとこ	-10.6539
集め	-10.654
やってるから	-10.6541
にいるとき	-10.6542
っていうやつ	-10.6546
変わり	-10.655
行くとき	-10.6558
例の	-10.656
悪いけど	-10.6565
時ぐらいに	-10.6565
やれば	-10.657
だら	-10.6571
を取る	-10.6575
05	-10.6577
難しく	-10.6579
気持ち悪	-10.658
巻	-10.658
居住	-10.6582
好きだよ	-10.6584
があるんだけど	-10.659
思ったんだけど	-10.6592
になってて	-10.6604
久しぶり	-10.661
げん	-10.6612
入っている	-10.663
その子が	-10.663
できるから	-10.6635
子どもに	-10.6639
恥ずかし	-10.6647
をつけて	-10.6648
厚	-10.6651
できたら	-10.6652
なきゃだめ	-10.6655
低	-10.6655
新しいの	-10.6664
話しかけ	-10.6667
飲んでる	-10.6669
働か	-10.6673
針	-10.6673
議	-10.6675
案	-10.6675
ことになって	-10.6676
義	-10.6676
比	-10.6676
精神	-10.6676
申	-10.6676
舞	-10.6677
映	-10.6677
よろしく	-10.6678
教師	-10.6678
吉	-10.6678
圧	-10.6678
権	-10.6678
ドコモ	-10.6678
幅	-10.6678
汗	-10.6678
富	-10.6678
システム	-10.6678
キノコ	-10.6678
クルーズ	-10.6678
副	-10.6678
づらい	-10.6678
スパゲティ	-10.6678
黙	-10.6678
034	-10.6678
037	-10.6678
ナポリ	-10.6678
ありがたい	-10.6678
サッカー	-10.6678
浜松	-10.6678
さんざん	-10.6678
おやじ	-10.6678
隊	-10.6678
報告	-10.6678
au	-10.6678
我々	-10.6679
筆	-10.6679
セン	-10.668
失礼します	-10.668
チケット	-10.668
最高	-10.6681
趣味	-10.6681
みると	-10.6682
高級	-10.6682
聞いたことある	-10.6684
業者	-10.6684
タイム	-10.6684
っていうのもある	-10.6686
嫌だな	-10.6686
体重	-10.6686
お宅	-10.6687
パック	-10.6687
工学部	-10.6692
思ってない	-10.6693
機会	-10.6693
っつったら	-10.6695
貸し	-10.6703
帰ったら	-10.6704
ありますよ	-10.6706
集中	-10.6707
書いてない	-10.671
つぶし	-10.671
お寺	-10.6719
めちゃ	-10.6723
僕の	-10.6727
父親	-10.6728
書かない	-10.6728
英文	-10.6731
こともない	-10.6731
おもしろそう	-10.6739
聞かれ	-10.674
この人は	-10.6746
科目	-10.6749
何回か	-10.6749
もらったの	-10.6749
買わない	-10.6751
うちから	-10.6752
おいしいよね	-10.6758
出てて	-10.676
焼け	-10.676
入れたら	-10.6762
おうち	-10.6765
先生の授業	-10.6767
降りて	-10.6768
お元気	-10.6771
だけじゃない	-10.6779
曲がって	-10.6781
歌手	-10.6784
だれだれ	-10.6789
申し訳ない	-10.679
僕が	-10.6797
暗い	-10.68
終わったあと	-10.6805
フランスで	-10.6819
書こう	-10.6819
を取って	-10.6822
バスが	-10.6826
必要ない	-10.6826
どうなん	-10.6838
あるのね	-10.6844
バッ	-10.6849
入学	-10.6853
だめです	-10.6853
彼女が	-10.6865
いるけど	-10.6866
人だと	-10.6867
なぜか	-10.687
パーマ	-10.6873
入ってんの	-10.6876
がついてる	-10.6876
ったりして	-10.688
やっている	-10.6887
頑張ってる	-10.6893
言うから	-10.6902
好きだから	-10.6905
食べられない	-10.6908
前の日	-10.6909
んでしょうか	-10.6914
私たちは	-10.6918
何もない	-10.6919
大した	-10.6924
あれだよね	-10.693
歌い	-10.6935
ませんか	-10.6936
らへん	-10.6937
女の子が	-10.6943
会話を	-10.6944
してもらった	-10.6945
もしょうがない	-10.6946
力が	-10.6954
やたら	-10.6955
今回は	-10.6958
いたんだけど	-10.696
ばれ	-10.6961
行きます	-10.6961
かなんかに	-10.6962
を作る	-10.6968
曲が	-10.6969
明日は	-10.6974
子どもは	-10.6977
の話を	-10.6977
どっちも	-10.6983
いたけど	-10.6986
って言わない	-10.6987
受か	-10.6989
感じる	-10.6991
話してて	-10.6995
暑	-10.6996
って感じだった	-10.7006
クラ	-10.7011
病	-10.7016
悪いこと	-10.7022
ころは	-10.7022
嫌なの	-10.7037
よかったのに	-10.704
かと思ったら	-10.7042
35	-10.7056
買える	-10.7065
連	-10.7069
濃	-10.7072
好	-10.7079
銀	-10.7084
なんなの	-10.7087
じゅ	-10.7089
返して	-10.709
竹	-10.7093
異	-10.7094
添	-10.7094
効果	-10.7094
床	-10.7094
状	-10.7094
湖	-10.7095
源氏	-10.7095
宇都宮	-10.7095
法律	-10.7095
囲	-10.7095
お葬式	-10.7095
推	-10.7095
枯	-10.7095
馬	-10.7095
欠	-10.7095
伊勢	-10.7095
緊張し	-10.7095
ラーメン	-10.7095
忘れてた	-10.7095
聴	-10.7095
明らかに	-10.7095
s	-10.7095
ひっくり返	-10.7095
棒	-10.7095
盛	-10.7095
雑談	-10.7095
ショー	-10.7095
層	-10.7095
離婚	-10.7095
神経	-10.7095
以来	-10.7095
態度	-10.7095
銀行	-10.7096
変わんない	-10.7096
ぎゅ	-10.7097
公開	-10.7097
止まる	-10.7097
持ってった	-10.7098
長崎	-10.7098
現場	-10.7099
ニング	-10.7099
怖かった	-10.7099
やはり	-10.71
当たった	-10.71
定期	-10.71
っちゃってる	-10.71
013	-10.7102
用事	-10.7103
住む	-10.7103
身体	-10.7103
点数	-10.7105
載ってる	-10.7106
昨日も	-10.7107
買ったら	-10.7107
入らない	-10.7109
になりたい	-10.711
030	-10.7112
しびれ	-10.712
なんじゃ	-10.7121
祭り	-10.7123
バル	-10.7124
中身	-10.7125
っつった	-10.7132
ところがある	-10.7138
1300	-10.7141
時ごろ	-10.7145
言っちゃった	-10.7148
人には	-10.7148
めん	-10.7148
女子	-10.7149
ないですか	-10.715
いつから	-10.7157
があんの	-10.7158
熱い	-10.7165
わかんなくて	-10.7169
普通の人	-10.7169
いたとき	-10.7171
犬が	-10.7173
働き	-10.7198
読ま	-10.7207
少なく	-10.721
行っちゃって	-10.7227
そうだな	-10.7236
説明して	-10.724
の場合	-10.7249
いいとこ	-10.725
みたいだね	-10.7256
見よう	-10.7259
が出てる	-10.7261
なしで	-10.7265
太った	-10.7268
定年	-10.7271
って言ってたから	-10.7274
集めて	-10.7277
するっていう	-10.7288
そうでもない	-10.7288
ゆった	-10.7293
向こうから	-10.7296
子どもたち	-10.7312
みたいだよ	-10.7315
タリ	-10.7329
心理学	-10.7331
活動	-10.7336
づけ	-10.7337
寄って	-10.7339
買っ	-10.7341
どうですか	-10.7345
迷	-10.7347
辞める	-10.7355
入ってきた	-10.736
取れた	-10.7362
という感じ	-10.7366
モス	-10.7396
があるでしょう	-10.74
君に	-10.7404
うちのお母さん	-10.7408
飼い	-10.741
ぐらいだった	-10.742
広く	-10.7421
そういうことを	-10.7429
顔を	-10.7434
かばん	-10.7435
回だけ	-10.7435
姉ちゃん	-10.7439
捨てる	-10.7443
そうでしょうね	-10.7456
問題ない	-10.7468
彼の	-10.7468
飲ま	-10.7475
プル	-10.7481
の世界	-10.7481
してくれて	-10.749
自分も	-10.7491
祭	-10.7499
両	-10.7499
掛	-10.7508
取ら	-10.7511
開ける	-10.7512
方がいいかな	-10.7518
乱	-10.7526
陽	-10.7527
注	-10.7527
救	-10.7528
婚	-10.7528
札幌	-10.7528
n	-10.7529
気の毒	-10.7529
告	-10.7529
チョウ	-10.7529
干	-10.7529
もあり	-10.7529
売る	-10.7529
崩	-10.7529
破	-10.7529
カボチャ	-10.7529
条	-10.7529
お母様	-10.7529
いただけ	-10.7529
衣	-10.7529
水曜日	-10.7529
玄関	-10.7529
レッスン	-10.7529
ケイジ	-10.7529
彩	-10.753
荒	-10.753
せんべい	-10.753
労	-10.753
主婦	-10.753
交換	-10.753
と思えば	-10.753
自宅	-10.753
理想	-10.753
わかります	-10.753
増える	-10.7531
絵手紙	-10.7531
具合	-10.7531
パスタ	-10.7532
若者	-10.7532
工事	-10.7533
どっちかっていうと	-10.7533
屋根	-10.7533
呼び	-10.7533
マスター	-10.7534
着いて	-10.7534
集まる	-10.7535
お腹いっぱい	-10.7536
センス	-10.7537
浮か	-10.7537
ローマ	-10.7538
ポスト	-10.7538
とか言われた	-10.754
おもしろくない	-10.7542
4000	-10.7548
ひげ	-10.7549
一気に	-10.755
出てない	-10.755
小さく	-10.7553
そっちの方	-10.7553
直前	-10.756
返す	-10.7568
だめじゃん	-10.757
感じだった	-10.7571
かもしれないし	-10.7572
全然関係ない	-10.7579
やってる人	-10.758
残り	-10.7582
そうだよねえ	-10.7583
長かった	-10.7586
行かなきゃ	-10.7592
行かん	-10.7595
伝わ	-10.7596
巻いて	-10.7597
週末	-10.7604
帰りに	-10.761
すでに	-10.7625
CM	-10.7641
出てき	-10.7644
どっから	-10.7645
たことある	-10.7647
倒	-10.7649
どころ	-10.7649
ちゃったから	-10.7657
いろいろな	-10.7658
預け	-10.766
お料理	-10.766
いるんだけど	-10.7662
3、4	-10.767
ちょい	-10.7671
にしようか	-10.7713
教えた	-10.7717
好きな人	-10.772
食べられる	-10.7724
って言ってたけど	-10.7728
迎えに	-10.7729
でーす	-10.7731
間に合わ	-10.7732
入っ	-10.774
わたしたち	-10.7744
くれれば	-10.7746
辞めて	-10.7751
っていうことを	-10.7752
読める	-10.7754
回す	-10.7755
行こうと思って	-10.7759
われ	-10.776
ふく	-10.7762
おいしいもの	-10.7764
高校のとき	-10.7764
んだろうな	-10.7768
失敗した	-10.7785
下げ	-10.7792
なにも	-10.7795
ふた	-10.7803
本人は	-10.7804
生協の	-10.7809
真ん中に	-10.7809
一部	-10.7815
言っとる	-10.7817
抜	-10.7825
ケン	-10.7829
くせに	-10.783
なーって思って	-10.7854
よかったら	-10.7864
つぐらい	-10.7865
その代わり	-10.7868
が出てきた	-10.7873
どこ行く	-10.7884
やせた	-10.7896
道を	-10.7898
調べた	-10.7901
やばいよ	-10.7902
なんて言うの	-10.7904
行きたく	-10.7906
と思いますよ	-10.7908
わけじゃないから	-10.792
ことがあって	-10.7921
言ってたの	-10.7923
この人が	-10.7924
してきて	-10.7931
できるし	-10.7933
離れ	-10.794
題	-10.794
ーんって	-10.7943
連れ	-10.7965
出かけ	-10.7966
ペース	-10.7977
ッキー	-10.7979
帽子	-10.7981
延	-10.7982
士	-10.7983
抱	-10.7983
票	-10.7983
氷	-10.7983
研	-10.7983
鶴	-10.7983
んところ	-10.7984
スウェーデン	-10.7984
籍	-10.7984
快	-10.7984
麻	-10.7984
番号	-10.7984
お客様	-10.7984
暴	-10.7984
交通費	-10.7984
認	-10.7984
症	-10.7984
尾	-10.7984
爆	-10.7984
硬	-10.7984
ポイント	-10.7984
ばりばり	-10.7984
仮	-10.7984
遺	-10.7984
バーベキュー	-10.7984
紫	-10.7984
わけにいかない	-10.7984
d	-10.7984
すき焼き	-10.7984
h	-10.7984
縮	-10.7984
きっかけ	-10.7984
評	-10.7984
頑張る	-10.7984
材料	-10.7984
操	-10.7985
扱	-10.7985
いいかげん	-10.7985
解説	-10.7985
交流	-10.7986
信じられない	-10.7986
封	-10.7986
信号	-10.7986
トラック	-10.7986
入試	-10.7986
どんだけ	-10.7986
日本語教師	-10.7988
くっついて	-10.7988
きのう	-10.7988
サイズ	-10.7988
どのくらい	-10.7988
067	-10.7989
土地	-10.799
好み	-10.799
ひどく	-10.799
時間半	-10.7991
学習	-10.7991
バター	-10.7992
ボード	-10.7993
出張	-10.7997
ウエ	-10.7999
痛み	-10.7999
採用	-10.7999
ランチ	-10.8003
ゆうたら	-10.8004
どっちがいい	-10.8008
怖いよね	-10.8009
選手	-10.801
どこだっけ	-10.8011
わからなかった	-10.8011
しなくても	-10.8012
ナン	-10.8012
お互いに	-10.8018
入ったら	-10.8023
帰ってきたら	-10.8026
やめよう	-10.803
そう思った	-10.8036
打って	-10.8037
ドン	-10.8045
153	-10.8059
だと思ってた	-10.8063
教えてくれ	-10.8074
あるあるある	-10.808
外人	-10.8081
寄り	-10.8082
引いて	-10.8085
わかるわかる	-10.8085
勉強してる	-10.8087
とかって思って	-10.8089
つーか	-10.809
歩いてる	-10.8101
代わりに	-10.8105
習って	-10.8105
るべき	-10.8108
みたいなもの	-10.8111
おっさん	-10.8112
乗せて	-10.8113
意味ない	-10.8123
高かった	-10.8125
なれる	-10.8131
休学	-10.8139
強く	-10.8139
だったもん	-10.8146
取ってない	-10.816
びっくりする	-10.8162
びっくりして	-10.8163
迷って	-10.817
痛かった	-10.8176
400	-10.8189
となると	-10.8201
もらってる	-10.8206
任せ	-10.8206
は別	-10.8207
ミス	-10.8212
持っていく	-10.8213
こんなもん	-10.8217
週に	-10.8222
届け	-10.8222
月ぐらい	-10.8235
合わせて	-10.8258
食べられ	-10.8265
歩け	-10.8275
そんときは	-10.8276
受かった	-10.8282
明け	-10.8282
ぽん	-10.8289
あっちの方	-10.8296
食べてない	-10.83
自然に	-10.8312
姉さん	-10.8312
高さ	-10.8317
だと思うけど	-10.8324
抜けて	-10.8329
一番いい	-10.8332
001	-10.8338
っちゃえば	-10.8345
閉め	-10.8348
がなくなって	-10.8363
必要な	-10.8366
上の方	-10.8383
ぼけ	-10.839
させられ	-10.8395
あったよね	-10.8395
時半から	-10.8404
から来てる	-10.8404
すごいきれい	-10.8408
投	-10.8444
始	-10.845
希望	-10.8455
活	-10.8455
存在	-10.8457
ジン	-10.8458
念	-10.8459
抗	-10.8459
属	-10.8459
象	-10.8459
森	-10.8459
お友達	-10.8459
死んじゃった	-10.8459
駐	-10.846
位置	-10.846
つまんない	-10.846
絡	-10.846
*	-10.846
ウォー	-10.846
握	-10.846
望	-10.846
防	-10.846
机	-10.846
剤	-10.846
貴	-10.846
聖	-10.846
一人暮らし	-10.846
タルト	-10.846
略	-10.846
チャンス	-10.846
五七五	-10.846
郡	-10.846
祝	-10.846
詳しく	-10.846
肩	-10.846
わかりません	-10.846
うらやましい	-10.846
賀	-10.846
ぜいたく	-10.8461
しんどい	-10.8461
そのとおり	-10.8461
手伝って	-10.8461
異常	-10.8461
わからへん	-10.8461
軍	-10.8461
連休	-10.8461
就職活動	-10.8462
当たる	-10.8463
コメント	-10.8463
何度も	-10.8463
似てない	-10.8463
ゼミ	-10.8463
どんどんどんどん	-10.8464
さっぱり	-10.8464
ティング	-10.8464
らしいけど	-10.8465
割引	-10.8465
都会	-10.8465
入院	-10.8465
行かれ	-10.8466
卒業旅行	-10.8466
苦手	-10.8467
パワー	-10.8467
能力	-10.8468
シート	-10.8471
集合	-10.8471
みえる	-10.8473
ライン	-10.8473
しゃべれる	-10.8475
探す	-10.8475
出席	-10.8477
最終的に	-10.8478
ふんふん	-10.8479
意見	-10.8481
オール	-10.8484
進んで	-10.8484
生地	-10.8485
どうしようもない	-10.8485
ロード	-10.849
やったっけ	-10.849
置いてあって	-10.8492
老人	-10.8494
かなあと思って	-10.8499
どうなった	-10.8507
いいわよ	-10.8512
やってたら	-10.8513
立てて	-10.8527
言ったんだけど	-10.8528
そんなことはない	-10.8528
だまされ	-10.853
どこにある	-10.853
研究者	-10.8531
そう言えば	-10.8534
久しぶりに	-10.8542
してたんだけど	-10.8549
掛ける	-10.8556
しとく	-10.8559
日目	-10.8562
行きたくない	-10.8564
決めた	-10.8568
切ら	-10.8572
人目	-10.8583
上がる	-10.8601
とは思わ	-10.8604
入ってきて	-10.8609
インド	-10.8611
一番下	-10.8619
って言ったから	-10.8619
合ってる	-10.8623
切れる	-10.8643
んじゃないかって	-10.8649
いくらぐらい	-10.8661
染め	-10.8661
そういう人が	-10.8676
渡して	-10.868
時過ぎ	-10.8681
買	-10.8682
食べたら	-10.8689
言われたら	-10.8691
レック	-10.8693
行きました	-10.8697
動く	-10.8708
レイ	-10.8725
慣れてる	-10.8732
いやいやいやいや	-10.8741
洗う	-10.8753
なくなっちゃって	-10.8757
だったんですよ	-10.8759
何がいい	-10.876
ちゃってる	-10.8792
月まで	-10.8798
ようなもの	-10.8807
ときもある	-10.881
りしてる	-10.8818
くず	-10.8818
建	-10.8823
するのは	-10.8825
弟が	-10.8834
ージュ	-10.8846
太って	-10.8849
乗せ	-10.8874
動き	-10.8888
できてない	-10.8893
ほれ	-10.8929
しっかりして	-10.8937
を買う	-10.8945
留	-10.8946
読んでる	-10.8953
持った	-10.8955
亡	-10.8958
球	-10.8958
久	-10.8958
句	-10.8958
スクール	-10.8959
課題	-10.8959
販	-10.8959
キャンセル	-10.8959
製	-10.8959
資	-10.8959
判	-10.8959
トヨタ	-10.896
可能	-10.896
腰	-10.896
証	-10.896
像	-10.896
津	-10.896
見られる	-10.896
訓練	-10.896
門	-10.896
拍	-10.896
自動車	-10.896
倉	-10.896
儀	-10.896
ゴリラ	-10.896
炊	-10.896
マニア	-10.896
ヶ	-10.896
露	-10.896
菌	-10.896
頑張れ	-10.896
失	-10.896
ばらばら	-10.896
おじいさん	-10.896
ドリンク	-10.896
ハンバーグ	-10.896
メイク	-10.896
途中から	-10.896
瀬	-10.896
カフェ	-10.896
ソリティア	-10.896
インディアン	-10.896
炎	-10.896
専攻	-10.896
占	-10.896
五	-10.896
すっかり	-10.896
メニュー	-10.896
カラー	-10.896
炭	-10.896
保育園	-10.896
燃	-10.896
サンドイッチ	-10.8961
涙	-10.8961
ふだん	-10.8961
主人公	-10.8961
損	-10.8961
ウィンドウズ	-10.8961
ウイルス	-10.8961
と思いながら	-10.8961
ホームページ	-10.8961
ごちそう	-10.8961
になりました	-10.8961
シンガポール	-10.8961
ルーム	-10.8962
いかにも	-10.8962
熊本	-10.8962
厳しく	-10.8962
牛肉	-10.8962
申し込	-10.8963
自信	-10.8963
029	-10.8963
ヒット	-10.8963
春休み	-10.8964
呼ぶ	-10.8964
掛かって	-10.8964
画面	-10.8964
出身地	-10.8964
うちの母	-10.8964
だんな	-10.8964
期待	-10.8964
不便	-10.8965
どおり	-10.8965
理科	-10.8966
スパイ	-10.8967
作業	-10.8967
応用	-10.8968
いまだに	-10.8968
正しい	-10.8969
ハム	-10.897
クレープ	-10.897
くっつけ	-10.8972
楽しんで	-10.8975
研究科	-10.8976
辛い	-10.8978
家事	-10.8979
まさか	-10.898
苦しい	-10.8995
発声	-10.8998
おります	-10.9016
電話かけ	-10.9016
当時	-10.9017
続いて	-10.902
事件	-10.9035
見れる	-10.9038
多くて	-10.904
大きくなって	-10.9043
中間	-10.9052
ごみ	-10.9053
ろく	-10.9062
使ってない	-10.9064
単に	-10.9073
お休み	-10.9075
だったんです	-10.9079
へ行った	-10.9084
食べ過ぎ	-10.9087
すりゃ	-10.9091
上の人	-10.9096
焼いて	-10.911
りすぎ	-10.9114
息子さん	-10.9124
のところは	-10.9125
かというと	-10.9128
カバー	-10.9132
的なこと	-10.9133
何時に	-10.9139
知った	-10.915
英語の先生	-10.915
きれいだった	-10.916
って言われたら	-10.9163
難しいよね	-10.9167
出たら	-10.9172
人の方が	-10.9175
面倒	-10.9191
なんでもいい	-10.9191
張って	-10.9201
年ぐらい前	-10.9207
全然だめ	-10.9208
勢	-10.9209
来い	-10.9214
時間目	-10.9238
つうの	-10.9242
書ける	-10.9251
くなっちゃう	-10.9253
行こうかな	-10.9259
染	-10.9268
くせ	-10.9272
話してた	-10.9277
してみた	-10.9283
一時	-10.9285
着る	-10.93
入んない	-10.9315
なんでしょ	-10.9324
受かる	-10.9328
預	-10.9329
嫌いなの	-10.9335
お金ない	-10.9347
ようがない	-10.935
アリ	-10.937
なんだった	-10.9372
決める	-10.9378
なって思って	-10.9382
置き	-10.9383
それでもいい	-10.9402
周りに	-10.9412
その人たち	-10.9426
らんかった	-10.9438
毎	-10.9445
きたい	-10.9449
っぱなし	-10.9459
まじめに	-10.9463
録音して	-10.9465
気にして	-10.9471
協	-10.9482
約束	-10.9484
程	-10.9485
ヴ	-10.9485
故	-10.9485
ビジネス	-10.9485
陸	-10.9485
鍵	-10.9486
納	-10.9486
永	-10.9486
了	-10.9486
遠慮	-10.9486
お嬢さん	-10.9486
芸能人	-10.9486
ポテト	-10.9486
陰	-10.9486
児	-10.9486
デパート	-10.9486
おそらく	-10.9486
網	-10.9486
盛り上が	-10.9486
跡	-10.9487
忘れちゃう	-10.9487
ダイエー	-10.9487
脂	-10.9487
障害	-10.9487
冷蔵庫	-10.9487
おひなさん	-10.9487
凝	-10.9487
単純	-10.9487
鮮	-10.9487
珍しく	-10.9487
お疲れさま	-10.9487
ファイル	-10.9487
阿波踊り	-10.9487
マミー	-10.9487
マニュアル	-10.9487
浪	-10.9487
貝	-10.9487
おにぎり	-10.9487
志望	-10.9487
パチンコ	-10.9487
同窓会	-10.9487
美容院	-10.9487
おっきな	-10.9487
ぼろぼろ	-10.9487
アドバイス	-10.9487
住宅	-10.9487
スーツ	-10.9487
歌った	-10.9487
in	-10.9487
そういうふうな	-10.9487
亡くなって	-10.9487
残念	-10.9488
に対する	-10.9488
通じる	-10.9488
講習	-10.9488
延々	-10.9488
段階	-10.9488
怖くない	-10.9489
独立	-10.9489
泊まる	-10.9489
高速	-10.9489
たびに	-10.949
明治	-10.949
広島	-10.949
愛知	-10.949
その場で	-10.9491
月の終わり	-10.9492
行かなきゃいけない	-10.9493
みーちゃん	-10.9494
買いたい	-10.9495
授業料	-10.9495
社長	-10.9495
向き	-10.9498
ほおー	-10.9499
オブ	-10.9501
サイン	-10.9503
カット	-10.9505
減る	-10.9505
お砂糖	-10.9505
020	-10.9506
大根	-10.9506
そやけど	-10.9508
飾り	-10.9509
仲よく	-10.9511
一言	-10.9511
カブ	-10.9513
あっという間に	-10.9516
を受け	-10.9517
生えて	-10.9517
専門学校	-10.9523
やろうと思って	-10.9523
入ってくる	-10.9526
何やってんの	-10.953
続く	-10.953
中学生	-10.953
だったんですけど	-10.9533
食わ	-10.9535
軽い	-10.9537
焼く	-10.9538
ほいでさあ	-10.954
目的	-10.9549
これぐらい	-10.9555
へ行く	-10.9558
通った	-10.957
こんだけ	-10.9577
止めて	-10.958
人形	-10.9582
伝え	-10.9596
食べちゃう	-10.9601
重い	-10.9611
深い	-10.9615
走り	-10.9619
手間	-10.9627
やってます	-10.9638
母親	-10.9652
ビン	-10.9659
コール	-10.9661
何時から	-10.9662
どんな感じ	-10.9672
そーんな	-10.9674
始める	-10.9686
自分のこと	-10.9698
話し方	-10.9704
パス	-10.9705
って思うんだけど	-10.9708
同じように	-10.9718
本屋	-10.9739
立ってる	-10.975
んでしょうけど	-10.975
トップ	-10.9762
フライ	-10.9764
行っと	-10.9767
順番に	-10.9786
というような	-10.9792
チェックして	-10.9804
と思いますけど	-10.9807
パイ	-10.9813
っていう話を	-10.982
方がいいと思う	-10.982
になりそう	-10.9826
私の友達	-10.9829
人によって	-10.9842
楽しいよ	-10.9877
もそうだけど	-10.9899
しょうがないよね	-10.99
思いました	-10.9903
録れ	-10.9905
になれば	-10.9906
行ってきた	-10.9935
しゃべってて	-10.9939
んじゃないかと	-10.9941
卒業した	-10.9951
ちっちゃ	-10.9952
ちょん	-10.9958
探した	-11.001
やったけど	-11.002
金持ち	-11.0035
独	-11.0036
想	-11.0039
掘	-11.0039
仏	-11.004
パターン	-11.004
匹	-11.0041
練	-11.0041
忘年会	-11.0041
策	-11.0041
ビュー	-11.0041
浩太朗さん	-11.0041
適	-11.0041
刊	-11.0042
政府	-11.0042
やらせて	-11.0042
算	-11.0042
ダウンロード	-11.0042
乳	-11.0042
柿	-11.0042
c	-11.0042
非	-11.0042
指導教官	-11.0042
狙	-11.0042
才	-11.0042
シャツ	-11.0042
忙しくて	-11.0042
ベトナム	-11.0042
姫	-11.0042
四日市	-11.0042
ポリス	-11.0042
w	-11.0042
狂牛病	-11.0042
DVD	-11.0042
メロス	-11.0042
健康	-11.0042
季節	-11.0042
房	-11.0042
リーディング	-11.0042
ジャスコ	-11.0042
易	-11.0042
盆	-11.0042
ジャガイモ	-11.0042
バーゲン	-11.0042
以降	-11.0042
統計	-11.0042
出会い	-11.0042
わらわら	-11.0043
ケース	-11.0043
ふざけ	-11.0043
撮影	-11.0043
めったに	-11.0043
タイトル	-11.0043
八事	-11.0044
あこがれ	-11.0044
書類	-11.0044
学院	-11.0045
ズボン	-11.0045
重要	-11.0045
小さな	-11.0045
怖ーい	-11.0046
残業	-11.0046
090	-11.0046
そういう意味では	-11.0047
終わっちゃった	-11.0047
満足	-11.0048
018	-11.0049
当たり	-11.0049
医学部	-11.005
ダニ	-11.0051
インター	-11.0051
後半	-11.0051
料金	-11.0052
中華	-11.0053
場面	-11.0054
ナビ	-11.0054
サバ	-11.0058
だれだっけ	-11.0059
ノリ	-11.006
ツナ	-11.0061
オフ	-11.0064
心配して	-11.0066
そやから	-11.0066
若い子	-11.007
カツ	-11.007
起こす	-11.0072
デイ	-11.0072
学長	-11.0075
厚い	-11.0079
どう思う	-11.0081
植え	-11.0089
捕ま	-11.0089
行きたかった	-11.0092
取れて	-11.0092
やだなー	-11.0099
イタリア人	-11.0101
パク	-11.0102
直す	-11.0102
ますます	-11.0103
置く	-11.0104
本気で	-11.0112
乗らない	-11.0112
書いたら	-11.0124
万円ぐらい	-11.0125
にもよる	-11.0128
できなくて	-11.0142
やめた方がいい	-11.0151
行ってみたい	-11.0156
それほど	-11.017
個ぐらい	-11.0175
様子	-11.0178
お金がない	-11.0182
枚ぐらい	-11.019
らっしゃいます	-11.0196
呼ばれて	-11.0197
そーお	-11.0199
方法	-11.0201
空気	-11.0203
リップ	-11.0206
言うこと	-11.0215
よさそう	-11.023
聞かれた	-11.0234
りっぱな	-11.0235
ラップ	-11.0254
食べちゃった	-11.0255
いろんなとこ	-11.0269
なんだかんだ	-11.0289
りまして	-11.0297
きゃいい	-11.0312
ゆうて	-11.032
ておいて	-11.0329
知ってます	-11.033
読んでない	-11.035
その中で	-11.0364
けち	-11.0365
つけてる	-11.038
起きる	-11.0412
考えてない	-11.0416
迎え	-11.0417
流れて	-11.0446
大学の先生	-11.0454
呼ばれ	-11.047
りゃいい	-11.0483
もあったし	-11.0489
だったのかな	-11.0514
見たことある	-11.0535
ではなくて	-11.0535
件	-11.0542
なんでだろう	-11.0547
何でもいい	-11.0549
うれしく	-11.0554
着てる	-11.0575
らしく	-11.0588
いわれ	-11.0591
ぶっ	-11.0594
遊んでる	-11.0595
砂糖	-11.061
最終	-11.061
漢	-11.0618
丁	-11.0621
ちゅうこと	-11.0624
おととい	-11.0629
チュー	-11.0629
紀	-11.0629
成人式	-11.0629
血液	-11.0629
免	-11.0629
涼	-11.0629
ひどかった	-11.063
ジャケット	-11.063
舌	-11.063
害	-11.063
従	-11.063
幕	-11.063
溶	-11.063
忘れたけど	-11.063
ソファー	-11.063
らっしゃった	-11.063
未	-11.063
欲しかった	-11.063
なんつーの	-11.063
批判	-11.063
緊張する	-11.063
プリクラ	-11.063
柳	-11.063
縦	-11.063
解釈	-11.063
ディズニーランド	-11.063
バランス	-11.063
援	-11.063
居酒屋	-11.063
福岡	-11.0631
ニューヨーク	-11.0631
スカイ	-11.0631
お願いしまーす	-11.0631
似たような	-11.0631
アウト	-11.0631
おかしかった	-11.0631
ともかく	-11.0631
商売	-11.0631
パフェ	-11.0631
経由	-11.0631
黄色	-11.0631
オープン	-11.0631
コーパス	-11.0631
うざい	-11.0631
とんでもない	-11.0631
映像	-11.0631
臨	-11.0631
だらだら	-11.0631
メント	-11.0631
家賃	-11.0631
といえば	-11.0631
似合ってる	-11.0631
半額	-11.0631
トーク	-11.0631
地球	-11.0631
果物	-11.0631
青森	-11.0631
鶏肉	-11.0632
放送	-11.0632
余計	-11.0632
カーテン	-11.0632
編集	-11.0632
少なくとも	-11.0632
福井	-11.0632
プリント	-11.0633
もっかい	-11.0633
筋肉	-11.0633
道具	-11.0633
習得	-11.0633
極楽	-11.0633
泊まった	-11.0633
事務所	-11.0633
大したことない	-11.0633
ラッキー	-11.0634
平安	-11.0634
ねえねえねえ	-11.0634
ハギ	-11.0636
作文	-11.0636
帰ろう	-11.0636
利用	-11.0636
飛ぶ	-11.0637
現代	-11.0638
開発	-11.0638
手帳	-11.0638
当たって	-11.0639
おなかいっぱい	-11.0639
基金	-11.0639
ハード	-11.0639
バーッと	-11.064
外国語	-11.0641
抜き	-11.0641
セミ	-11.0643
アンド	-11.0643
マーク	-11.0645
所長	-11.0645
グラス	-11.0648
挙げ	-11.0648
組んで	-11.0654
メン	-11.0655
この時期	-11.0659
SE	-11.0665
次会	-11.0665
研究所	-11.0667
続き	-11.0669
エル	-11.0675
日常	-11.0675
やったことない	-11.0683
読んだら	-11.0686
ふっと	-11.069
このぐらいの	-11.069
大切	-11.0693
見学	-11.0695
聞いてくれ	-11.0701
早かった	-11.0704
ればいいのに	-11.0711
ほんじゃ	-11.0711
うれし	-11.0712
気づいた	-11.0722
就職する	-11.0724
映画を見	-11.0726
録る	-11.0786
られなかった	-11.0793
高くない	-11.0795
受けてる	-11.0801
心理	-11.0816
この人たち	-11.0818
眠くな	-11.0828
読めない	-11.0836
社員	-11.0847
って言ってました	-11.0855
いるところ	-11.0865
捨てて	-11.0866
覚えた	-11.0883
気をつけて	-11.0887
半分ぐらい	-11.0897
見にいった	-11.0901
知ってて	-11.0901
社会人	-11.0915
うちの方	-11.0916
用意して	-11.0925
有名な人	-11.0933
買ってくる	-11.0933
何しに	-11.0953
思います	-11.0962
ひっ	-11.1014
600	-11.1014
じゃなーい	-11.1034
作らない	-11.1042
ネコ	-11.1071
笑う	-11.1083
らっしゃい	-11.1084
多くない	-11.1099
ついてて	-11.1116
りっぱ	-11.113
子どものとき	-11.1162
甘く	-11.1167
外に出	-11.1175
かなって思って	-11.1195
作ったり	-11.1215
録った	-11.1223
辛	-11.1233
入ってます	-11.1233
皿	-11.1234
悲し	-11.1243
華	-11.1244
農	-11.1245
岩	-11.1249
額	-11.1252
司	-11.1252
武	-11.1252
やさしい	-11.1253
域	-11.1254
暖	-11.1254
紅	-11.1254
独特	-11.1254
容	-11.1254
姓	-11.1254
攻	-11.1254
精	-11.1255
お祝い	-11.1255
イチゴ	-11.1255
甲	-11.1255
サトイモ	-11.1255
といっても	-11.1255
称	-11.1255
森永	-11.1255
泡	-11.1255
霊	-11.1255
敏	-11.1255
蔵	-11.1255
オークション	-11.1255
JALT	-11.1255
察	-11.1255
縁	-11.1255
高島屋	-11.1255
エネルギー	-11.1255
ガイド	-11.1255
典	-11.1255
伏	-11.1255
財布	-11.1255
リズム	-11.1255
訴	-11.1255
置いといて	-11.1255
ケータイ	-11.1255
婿	-11.1255
警察	-11.1255
すいませーん	-11.1255
リラックス	-11.1255
ウォークマン	-11.1255
軽井沢	-11.1255
召し上が	-11.1255
頑張った	-11.1255
スタイル	-11.1255
オフィス	-11.1256
お歳暮	-11.1256
仙台	-11.1256
真っ黒	-11.1256
くらげ	-11.1256
ウーロン茶	-11.1256
終了	-11.1256
詩	-11.1256
別荘	-11.1256
現住所	-11.1256
冷凍	-11.1256
心臓	-11.1256
コマーシャル	-11.1256
のぞみ	-11.1256
植物	-11.1256
解決	-11.1256
詳しい	-11.1256
始まり	-11.1256
宮崎	-11.1256
落ち着いて	-11.1257
許せない	-11.1257
製品	-11.1257
協力	-11.1257
デビュー	-11.1257
無視	-11.1257
千葉	-11.1257
つきあい	-11.1257
あげようか	-11.1258
二十	-11.1258
立たない	-11.1258
下ろして	-11.1259
混ざ	-11.1259
関西弁	-11.1259
職業	-11.1259
機関	-11.1259
教員	-11.1259
思いっきり	-11.1259
ホスト	-11.126
今の時期	-11.126
頼まれ	-11.126
両方とも	-11.126
葉書	-11.126
大阪弁	-11.1261
ケット	-11.1261
片道	-11.1261
覚えとる	-11.1262
ついでに	-11.1262
選んだ	-11.1262
言い訳	-11.1263
プール	-11.1263
怒られる	-11.1264
マップ	-11.1264
混む	-11.1265
下宿	-11.1265
迷う	-11.1266
全国	-11.1266
別々	-11.1266
あるいは	-11.1267
メイン	-11.1267
遅かった	-11.1267
ポット	-11.1268
っぺ	-11.1268
クラブ	-11.1269
項目	-11.127
使いたい	-11.127
毎月	-11.1271
時半ぐらい	-11.1271
婦人	-11.1273
お礼	-11.1273
そっくり	-11.1274
消え	-11.1275
昼間	-11.128
まあいっか	-11.1282
話せる	-11.1283
遅くなる	-11.1283
ほぼ	-11.1283
前半	-11.1291
お金持ち	-11.1291
沿い	-11.1292
思い出す	-11.1293
教えてもらって	-11.1295
知らんかった	-11.1295
食べれない	-11.1297
寝てた	-11.1298
出してくれる	-11.13
ちゃーん	-11.1311
んじゃないのかな	-11.1312
そんなふうに	-11.132
広げ	-11.1326
彼ら	-11.1329
ルーツ	-11.1333
戻った	-11.1339
言うわけ	-11.1357
学生たち	-11.1357
なんちゅう	-11.1358
わけでもない	-11.139
下げて	-11.1394
引き受け	-11.1398
出せない	-11.1398
って言っちゃ	-11.1407
もいるし	-11.1416
わけではない	-11.1427
いらして	-11.1438
の授業で	-11.1444
だと思います	-11.147
失礼いたしま	-11.1479
ワーッて	-11.1483
取らない	-11.1495
パン屋	-11.1495
平日	-11.1517
込んだ	-11.1518
育てて	-11.152
おかしくない	-11.1526
ごはん食べ	-11.1556
800	-11.1587
うわーっ	-11.161
んじゃないかしら	-11.1612
思ったこと	-11.1628
言ったっけ	-11.1635
若く	-11.1639
んじゃなーい	-11.1643
買えない	-11.1646
しゃべんない	-11.1652
伝える	-11.1668
娘さん	-11.1698
学者	-11.17
いたします	-11.1726
見えた	-11.173
どうなるか	-11.1732
思ってたけど	-11.1736
したりして	-11.176
ぐち	-11.1772
置いてある	-11.1785
といた方がいい	-11.1805
車に乗	-11.1849
軽く	-11.1896
狭	-11.1899
ウマ	-11.1902
逃	-11.1912
ってゆって	-11.1918
フォン	-11.1918
絶	-11.192
標準	-11.192
宇宙	-11.192
池	-11.192
処	-11.1921
プレーヤー	-11.1921
意識して	-11.1921
照	-11.1921
アピール	-11.1921
カラオケ	-11.1921
大量に	-11.1921
アレルギー	-11.1922
滅	-11.1922
プログラム	-11.1922
y	-11.1922
u	-11.1922
バナナ	-11.1922
くださーい	-11.1922
林	-11.1922
億	-11.1922
誤	-11.1922
デザイン	-11.1922
ミーティング	-11.1922
ぐるぐる	-11.1922
デジカメ	-11.1922
グアム	-11.1922
雲	-11.1922
浴	-11.1922
アルバム	-11.1922
ジョージ	-11.1922
うっとうしい	-11.1922
寿	-11.1922
確実に	-11.1922
巨	-11.1922
障	-11.1922
ベーコン	-11.1922
ペーパー	-11.1922
ファースト	-11.1922
祖	-11.1922
粒	-11.1922
棚	-11.1922
コンサート	-11.1922
とか思いながら	-11.1922
建築	-11.1922
腕	-11.1922
行きたーい	-11.1922
スプーン	-11.1922
&	-11.1922
092	-11.1922
墨	-11.1922
ミキサー	-11.1922
可児	-11.1922
偏差値	-11.1922
ちくしょう	-11.1922
癖	-11.1922
キャラ	-11.1922
フローリング	-11.1922
政治	-11.1922
納豆	-11.1922
自慢	-11.1922
頃	-11.1922
疑問	-11.1922
ジーパン	-11.1922
ニックネーム	-11.1922
文庫	-11.1922
ワッ	-11.1922
わざと	-11.1923
競争	-11.1923
くださって	-11.1923
布団	-11.1923
よろしくお願いします	-11.1923
以内	-11.1923
インタビュー	-11.1923
別府	-11.1923
プレステ	-11.1923
に比べたら	-11.1923
おまけ	-11.1923
以下	-11.1924
乗り換え	-11.1924
強制	-11.1924
整理	-11.1924
重視	-11.1924
太郎	-11.1924
おもちゃ	-11.1924
メロン	-11.1925
関東	-11.1926
おごって	-11.1926
団地	-11.1926
上司	-11.1926
ガラス	-11.1926
ペット	-11.1927
事情	-11.1927
お墓	-11.1927
四国	-11.1927
ブッシュ	-11.1927
信用	-11.1928
かまわない	-11.1928
いつごろ	-11.193
ベスト	-11.193
サイト	-11.1931
成田	-11.1931
作品	-11.1931
入り口	-11.1931
ゴマ	-11.1933
割合	-11.1933
上級	-11.1933
出版	-11.1934
教えてもらった	-11.1934
年寄り	-11.1935
せまい	-11.1935
載ってた	-11.1935
こんなふうに	-11.1937
ガスト	-11.1937
やりながら	-11.1938
開けたら	-11.1938
会いに	-11.1938
ブック	-11.1939
学期	-11.194
こっち側	-11.1941
会費	-11.1942
050	-11.1942
マット	-11.1943
漬け	-11.1944
お皿	-11.1944
法学部	-11.1944
狭い	-11.1945
ふとん	-11.1945
とらえ	-11.1947
ごめんごめん	-11.1948
初めて聞いた	-11.1948
あすこ	-11.1952
やってらっしゃる	-11.1952
あんまり好きじゃない	-11.1953
小学生	-11.1953
ルール	-11.1953
ほんなら	-11.1955
送ってきた	-11.1956
大学時代	-11.1957
つうか	-11.1984
一緒だった	-11.1991
引っ越して	-11.1994
どうやら	-11.1996
逆子	-11.2003
聞いと	-11.2007
だと思ってる	-11.2008
聞かれて	-11.202
のしかた	-11.2021
おっしゃる	-11.2036
飲め	-11.2045
日本語学校	-11.2051
雑音	-11.2052
と同じぐらい	-11.2084
駅まで	-11.2085
来ちゃった	-11.2089
閉めて	-11.2106
聞こえない	-11.2183
調べる	-11.2208
貸	-11.2218
はかま	-11.2234
増えてる	-11.2253
てきちゃった	-11.2255
かかってき	-11.2257
細かく	-11.2258
受け入れ	-11.2258
もんですから	-11.226
くんない	-11.2264
ショックだった	-11.2267
分間	-11.2271
離れてる	-11.2288
と思われ	-11.2313
やります	-11.2363
短期	-11.2419
倒れ	-11.2437
まちがって	-11.246
換	-11.2531
適当	-11.2566
沿	-11.2593
出せば	-11.2601
礼	-11.2615
風呂	-11.2617
朝ご飯	-11.2629
学生のとき	-11.2631
恵	-11.2633
廃	-11.2633
な顔して	-11.2634
いわく	-11.2634
サングラス	-11.2634
遭	-11.2634
バイキング	-11.2634
釜	-11.2635
盤	-11.2635
専	-11.2635
r	-11.2636
季	-11.2636
置いとく	-11.2636
争	-11.2636
姿	-11.2636
すごーく	-11.2636
岸	-11.2636
胸	-11.2636
葬	-11.2636
叱	-11.2636
概	-11.2636
没	-11.2636
いらいら	-11.2636
ヤフー	-11.2636
里	-11.2636
旧	-11.2636
ノーベル賞	-11.2636
アンケート	-11.2636
痴	-11.2636
御	-11.2636
遊ぼう	-11.2636
キリスト教	-11.2636
ダウン	-11.2636
マウンテン	-11.2636
ユニクロ	-11.2636
恐ろしい	-11.2636
もらわないと	-11.2636
ペネロペ	-11.2636
翻訳	-11.2636
圏	-11.2636
ディスク	-11.2636
ダイエット	-11.2636
マイナス	-11.2636
香嵐渓	-11.2636
ディズニー	-11.2636
裁	-11.2636
鈴	-11.2636
豚	-11.2636
すっげえ	-11.2636
膜	-11.2636
クーラー	-11.2636
奇	-11.2636
きっちり	-11.2636
シャワー	-11.2636
ネイティブ	-11.2636
貸出中	-11.2636
バージョン	-11.2636
雇	-11.2636
ちょこちょこ	-11.2637
姿勢	-11.2637
ひたすら	-11.2637
棟	-11.2637
ソニー	-11.2637
夕飯	-11.2637
お寿司	-11.2637
俳優	-11.2637
看護婦さん	-11.2637
通じない	-11.2637
うるさく	-11.2637
双子	-11.2637
ドンキー	-11.2637
保証	-11.2637
家庭教師	-11.2637
連続	-11.2637
ファックス	-11.2637
対象	-11.2637
階建て	-11.2638
ちっとも	-11.2638
感想	-11.2638
案内	-11.2639
試合	-11.2639
よろしいですか	-11.2639
金額	-11.2639
都合	-11.264
精神的に	-11.264
016	-11.264
何げに	-11.264
喜ぶ	-11.2641
針金	-11.2641
バスに乗って	-11.2641
不自然	-11.2641
大垣	-11.2642
理論	-11.2644
取ろう	-11.2644
つながって	-11.2644
ベルト	-11.2646
わかんなくって	-11.2646
限定	-11.2646
会いたい	-11.2646
原作	-11.2646
作ろう	-11.2649
和歌	-11.2652
聞きたい	-11.2653
付いてる	-11.2654
全体的に	-11.2655
どうなんだろ	-11.2655
かわいかった	-11.2655
高知	-11.2656
物理	-11.2658
英語教育	-11.2658
高校んとき	-11.266
切れてる	-11.266
IR	-11.2662
ちゃおうか	-11.2667
靴下	-11.2668
言われちゃった	-11.2672
抜かれ	-11.2679
だまって	-11.2705
聞いてみる	-11.2718
蒸し	-11.2719
かわいらしい	-11.274
になれ	-11.2748
降りる	-11.2767
働	-11.2795
まちがってる	-11.2818
乗れ	-11.2821
理系	-11.2824
ルート	-11.2829
事務の人	-11.2888
乗れる	-11.2896
いかなきゃ	-11.2897
南の方	-11.2898
売った	-11.29
切り替え	-11.2906
飲めない	-11.2909
いえいえいえ	-11.294
若いとき	-11.2941
だったりする	-11.2948
ませんでした	-11.2957
持ってきてくれ	-11.2964
かっこよく	-11.2976
ていうこと	-11.2985
日本語教育学	-11.2999
がいるんだ	-11.3007
ひとつ	-11.301
けばよかった	-11.3031
と思ってるんだけど	-11.3049
飲める	-11.3053
なんて言うのかな	-11.3062
下の方	-11.3063
起	-11.3091
静	-11.316
列車	-11.3182
飼った	-11.3323
返せ	-11.3323
話を聞いて	-11.3365
めんどくさ	-11.3378
洞	-11.3392
垣	-11.3399
砂	-11.3401
丘	-11.3402
爆弾	-11.3402
枝	-11.3403
5〜6	-11.3403
我	-11.3404
セーター	-11.3404
章	-11.3404
矢	-11.3405
キャリア	-11.3405
湿	-11.3405
ファミリー	-11.3405
つながり	-11.3405
自分たちで	-11.3405
疑	-11.3405
イチョウの葉	-11.3405
泉	-11.3405
NTT	-11.3405
献	-11.3405
ブラジル	-11.3405
源	-11.3405
牧	-11.3405
トンネル	-11.3405
仲良く	-11.3405
岡崎	-11.3405
のんびり	-11.3405
ケアンズ	-11.3405
マグロ	-11.3406
キャラメル	-11.3406
四角	-11.3406
施	-11.3406
この野郎	-11.3406
メタファー	-11.3406
酸	-11.3406
独り暮らし	-11.3406
お気に入り	-11.3406
シュークリーム	-11.3406
ハンバーガー	-11.3406
バンデラス	-11.3406
p	-11.3406
シャケ	-11.3406
過程	-11.3406
誰	-11.3406
株	-11.3406
レーザー	-11.3406
印刷	-11.3406
お好み焼き	-11.3406
早めに	-11.3406
わりかし	-11.3406
役に立つ	-11.3406
過去	-11.3406
メーカー	-11.3406
真っ赤	-11.3406
尻	-11.3406
スピーチ	-11.3406
候補	-11.3406
神奈川	-11.3406
フード	-11.3406
宣伝	-11.3406
今どき	-11.3406
焦	-11.3406
応募して	-11.3406
マスコミ	-11.3406
わがまま	-11.3406
つまみ	-11.3406
専任	-11.3406
池袋	-11.3406
判断	-11.3406
講演	-11.3406
近づけ	-11.3406
脱いで	-11.3407
かぎり	-11.3407
急いで	-11.3407
ガンガン	-11.3407
難しかった	-11.3407
配達	-11.3407
怪しい	-11.3407
独身	-11.3407
人しかいない	-11.3407
スポーツカー	-11.3407
教養	-11.3407
メンバー	-11.3407
薬局	-11.3407
落ち込んで	-11.3408
待ち合わせ	-11.3408
鎖	-11.3408
間に合う	-11.3409
右折	-11.3409
おっしゃってた	-11.341
たまーに	-11.341
閉まる	-11.341
怖くて	-11.341
世間	-11.341
知りたい	-11.341
号館	-11.341
消費	-11.341
通勤	-11.341
味覚	-11.3411
職員	-11.3411
うれしかった	-11.3411
止まった	-11.3411
どうぞどうぞ	-11.3411
焼き肉	-11.3411
遅れた	-11.3412
だんだんだんだん	-11.3412
女優	-11.3412
困っちゃう	-11.3413
電車の中で	-11.3413
和風	-11.3413
地区	-11.3414
スペイン語	-11.3414
バーッて	-11.3414
遅れる	-11.3414
今さら	-11.3414
産まれ	-11.3415
タイツ	-11.3415
ネギ	-11.3415
抜いて	-11.3416
カセット	-11.3416
丁目	-11.3416
かかってくる	-11.3416
実感	-11.3416
スペース	-11.3418
たかったんだけど	-11.3418
コンブ	-11.3419
ベース	-11.3419
007	-11.3419
週目	-11.342
だれもいない	-11.342
並み	-11.3421
色紙	-11.3421
あっさり	-11.3421
たいがい	-11.3422
ほりゃ	-11.3422
踏み	-11.3422
008	-11.3422
ロング	-11.3423
知らせ	-11.3425
君たち	-11.3425
買っちゃった	-11.3426
005	-11.3427
ちっちゃく	-11.3429
入っとる	-11.343
熱くな	-11.3432
時間半ぐらい	-11.3433
ピット	-11.3433
死にそう	-11.3439
うちの母親	-11.3442
晩ご飯	-11.3453
届いた	-11.3453
北の方	-11.3464
思わず	-11.3485
以前	-11.3499
子もいる	-11.3502
文系	-11.3513
働いた	-11.3523
おかず	-11.353
やりたくな	-11.3538
なってしまう	-11.3539
行っとった	-11.3557
つないで	-11.3615
走れ	-11.3615
つき合って	-11.3642
なってきて	-11.366
かからない	-11.3668
ニック	-11.368
働け	-11.3714
モケ	-11.3716
受付	-11.3751
入ったとき	-11.3766
かぶって	-11.3773
殺され	-11.3775
はするけど	-11.3796
行かなくても	-11.383
んじゃないかっていう	-11.3833
置け	-11.3846
もらえば	-11.4091
んじゃないかと思う	-11.4099
締	-11.4118
お互い	-11.4176
辞	-11.419
ったことがない	-11.4205
ふんふんふん	-11.4225
じいちゃん	-11.4227
厳	-11.4234
磨	-11.4235
明るい	-11.4236
営	-11.4237
印	-11.4237
ドクダミ	-11.4237
隔	-11.4237
液	-11.4237
氏	-11.4238
キャン	-11.4238
指輪	-11.4238
JAL	-11.4238
ハンサム	-11.4238
レジュメ	-11.4238
大きかった	-11.4238
宗	-11.4238
完	-11.4238
モミジ	-11.4238
眼	-11.4238
ケーブル	-11.4238
屈	-11.4238
カウンター	-11.4238
財	-11.4238
コンタクト	-11.4238
各	-11.4238
伊	-11.4238
交差点	-11.4239
イベント	-11.4239
堅	-11.4239
失礼しまーす	-11.4239
群	-11.4239
クラシック	-11.4239
年末年始	-11.4239
枠	-11.4239
わかりにくい	-11.4239
絵の具	-11.4239
警	-11.4239
均	-11.4239
幼	-11.4239
皇	-11.4239
がんがん	-11.4239
赤ん坊	-11.4239
オセロ	-11.4239
手羽先	-11.4239
白無垢	-11.4239
わかりやすい	-11.4239
ビスケット	-11.4239
真っ白	-11.4239
スケジュール	-11.4239
清	-11.4239
むかついて	-11.4239
ウェブ	-11.4239
b	-11.4239
ビリヤード	-11.4239
初心者	-11.4239
歯医者さん	-11.4239
g	-11.4239
はじっこ	-11.4239
ありがとうございまーす	-11.4239
ブレーキ	-11.4239
譲	-11.4239
巡	-11.4239
荻窪	-11.4239
バニラ	-11.4239
即	-11.4239
和菓子	-11.4239
マヨネーズ	-11.4239
パセリ	-11.4239
阿佐ヶ谷	-11.4239
ドライブ	-11.4239
蒲プリ	-11.4239
チェスター	-11.4239
基準	-11.4239
混ぜて	-11.4239
行こっか	-11.4239
辞典	-11.4239
遇	-11.4239
正確に	-11.4239
猿	-11.4239
縫	-11.4239
喫茶店	-11.4239
ガソリン	-11.4239
博多	-11.4239
宝	-11.4239
小田急	-11.4239
担任	-11.4239
耐えられ	-11.4239
息抜き	-11.4239
傾向	-11.4239
近づいて	-11.4239
目標	-11.4239
チーム	-11.4239
塚	-11.4239
まつげ	-11.4239
プリンター	-11.4239
カップル	-11.424
イチロー	-11.424
つき合い	-11.424
処理	-11.424
英検	-11.424
関連	-11.424
お嫁さん	-11.424
背が高い	-11.424
香港	-11.424
みそ汁	-11.4241
斜め	-11.4241
調節	-11.4241
所属	-11.4241
あやしい	-11.4241
抱えて	-11.4241
意図	-11.4241
退職	-11.4242
進まない	-11.4242
たいてい	-11.4242
ガーッて	-11.4242
うまかった	-11.4243
工業	-11.4243
固定	-11.4243
ないないない	-11.4244
シフォン	-11.4244
違ったっけ	-11.4244
特集	-11.4244
住所	-11.4244
紙袋	-11.4245
勤めてる	-11.4245
レンズ	-11.4245
動いてる	-11.4245
食えない	-11.4246
何てーの	-11.4246
おいおい	-11.4246
なさった	-11.4246
水菜	-11.4246
食べ放題	-11.4246
怒られた	-11.4246
目の前に	-11.4247
お世話になっ	-11.4248
同意	-11.4248
入れといて	-11.4248
台北	-11.4252
農家	-11.4255
元に戻	-11.426
えらく	-11.4267
どうなんでしょうね	-11.4269
みえた	-11.4273
捨てちゃった	-11.4289
つなげ	-11.4335
暮れ	-11.4348
飲みにい	-11.4402
ガリ勉	-11.446
もそうだし	-11.4539
どうにか	-11.4556
る人もい	-11.4599
順番	-11.4644
浮	-11.4675
多すぎ	-11.4728
面倒見	-11.4734
気はする	-11.4802
やめてくれ	-11.4885
申し訳	-11.4891
くなりました	-11.4947
夕	-11.4971
プリン	-11.502
出掛け	-11.5035
てごらん	-11.5072
しかたない	-11.5078
完全	-11.5082
項	-11.5125
宅	-11.5126
可	-11.5139
てくださった	-11.5141
幸	-11.5143
よろしい	-11.5144
暗記	-11.5145
フィレンツェ	-11.5146
芽	-11.5146
成功	-11.5146
フラッシュ	-11.5147
いつの間にか	-11.5147
UFO	-11.5147
鶏	-11.5147
素直に	-11.5147
浜	-11.5147
インドネシア	-11.5147
ニンジン	-11.5147
冷静に	-11.5147
ダイヤ	-11.5147
係	-11.5147
志	-11.5147
漫画	-11.5147
ビタミン	-11.5147
具体的に	-11.5147
駆	-11.5147
浦	-11.5147
迫	-11.5147
アフリカ	-11.5148
レーション	-11.5148
九	-11.5148
唱	-11.5148
メッセージ	-11.5148
七	-11.5148
おかわり	-11.5148
ませーん	-11.5148
エレベーター	-11.5148
十和田	-11.5148
則	-11.5148
そもそも	-11.5148
比較的	-11.5148
洗濯物	-11.5148
糖	-11.5148
ファッション	-11.5148
ミスチル	-11.5148
厳しかった	-11.5148
エジプト	-11.5148
アクセス	-11.5148
闘	-11.5148
稲	-11.5148
エクセル	-11.5148
おばちゃま	-11.5148
浅	-11.5148
致	-11.5148
副作用	-11.5148
ディスカッション	-11.5148
ハウス	-11.5148
訪	-11.5148
浄土宗	-11.5148
ゴールドコースト	-11.5148
シンプル	-11.5148
叩	-11.5148
釣	-11.5148
青空文庫	-11.5148
ナッツ	-11.5148
お手伝い	-11.5148
サラリーマン	-11.5148
デンバー	-11.5148
暮らす	-11.5148
落花生	-11.5148
親せき	-11.5148
ゴルフ	-11.5148
浸	-11.5148
鴨	-11.5148
ヒント	-11.5148
家事手伝い	-11.5148
ファミレス	-11.5148
昭和	-11.5148
スピード	-11.5148
雪降って	-11.5148
チェーン店	-11.5148
ばっちり	-11.5148
ベルギー	-11.5148
father	-11.5148
ジャニーズ	-11.5148
透	-11.5148
瀬戸内	-11.5148
丈	-11.5148
(	-11.5148
おふろ	-11.5148
なきゃいけなかった	-11.5148
フォロー	-11.5148
意味不明	-11.5148
潤	-11.5148
浄土真宗	-11.5148
泥棒	-11.5148
気づかなかった	-11.5148
children	-11.5148
おせち	-11.5148
陶	-11.5148
勝負	-11.5148
宗教	-11.5148
亀	-11.5148
ほこり	-11.5148
アナウンサー	-11.5148
工夫して	-11.5148
予稿集	-11.5148
簿	-11.5148
因島	-11.5148
主義	-11.5148
残酷	-11.5148
ミラノ	-11.5148
エゴラッピン	-11.5148
タイミング	-11.5149
負担	-11.5149
こーんな	-11.5149
なんとかかんとか	-11.5149
って思いながら	-11.5149
ずるい	-11.5149
内緒	-11.5149
打ち掛け	-11.5149
派遣	-11.5149
学童	-11.5149
イスラム教	-11.5149
むちゃくちゃ	-11.5149
自分たちの	-11.5149
運命	-11.5149
苦痛	-11.515
助教授	-11.515
筆記	-11.515
生きていける	-11.515
どんぐらい	-11.515
舞台	-11.5151
グレイ	-11.5151
英会話	-11.5151
チューブ	-11.5151
箱根	-11.5151
学習者	-11.5151
共立	-11.5151
びっくりしちゃって	-11.5151
豊田	-11.5152
なんじゃそりゃ	-11.5152
お父さんとお母さん	-11.5152
服装	-11.5152
奥様	-11.5152
073	-11.5152
おなかすい	-11.5152
表情	-11.5152
撮ろう	-11.5152
無料	-11.5153
ユング	-11.5153
大きすぎ	-11.5153
っていえば	-11.5154
おもしろがって	-11.5154
比べると	-11.5155
団体	-11.5155
取らなきゃいけない	-11.5155
おしり	-11.5155
たばこ	-11.5168
銀座	-11.5169
あふれ	-11.5284
かせて	-11.5309
ぴったり	-11.5325
に向かって	-11.534
もらっ	-11.5486
てらした	-11.5904
ておけば	-11.6097
晶	-11.6139
サツマイモ	-11.6144
レーザーメス	-11.6145
予想	-11.6146
マーライオン	-11.6146
商	-11.6146
イスラム	-11.6146
ミッション	-11.6146
荒れてた	-11.6147
ファイブ	-11.6147
バリバリ	-11.6147
禅	-11.6147
底	-11.6147
署	-11.6147
きちっと	-11.6147
健	-11.6147
管	-11.6147
泥	-11.6147
外務省	-11.6147
刈	-11.6148
築	-11.6148
狂	-11.6148
兼	-11.6148
存	-11.6148
亜	-11.6148
綿	-11.6148
願	-11.6148
境	-11.6148
蔭	-11.6148
維	-11.6148
穂	-11.6148
肥	-11.6148
腸	-11.6148
鏡	-11.6148
吐	-11.6148
殿	-11.6148
歓	-11.6149
彫	-11.6149
蓄	-11.615
慣	-11.6746
以	-11.7099
皆	-11.7208
ィ	-11.7211
挙	-11.7224
ァ	-11.7252
態	-11.7257
怪	-11.7257
府	-11.7257
泳	-11.7258
凍	-11.7258
龍	-11.7258
簡	-11.7259
狩	-11.7259
柱	-11.7259
腐	-11.7259
渇	-11.7259
毒	-11.7259
撲	-11.7259
候	-11.7259
賛	-11.7259
ぇ	-11.7259
拒	-11.7259
紺	-11.7259
鐘	-11.7259
偽	-11.7259
芋	-11.7259
丼	-11.7259
六	-11.7259
瓶	-11.7259
禁	-11.7259
著	-11.7259
慎	-11.7259
革	-11.7259
貫	-11.7259
濁	-11.7259
奏	-11.7259
依	-11.726
暮	-11.8334
迎	-11.8388
答	-11.8423
樽	-11.85
徒	-11.8505
果	-11.8506
杉	-11.8506
臓	-11.8507
疫	-11.8507
呂	-11.8508
織	-11.8508
錦	-11.8508
俳	-11.8508
幻	-11.8509
伴	-11.8509
丹	-11.8509
惑	-11.8509
拝	-11.8509
郷	-11.8509
乃	-11.8509
拠	-11.8509
灯	-11.8509
肝	-11.8509
奪	-11.8509
桃	-11.8509
樟	-11.8509
複	-11.8509
謡	-11.8509
覧	-11.8509
沸	-11.8509
柔	-11.8509
嘘	-11.8509
徳	-11.8509
豪	-11.8509
ぁ	-11.8509
睡	-11.8509
頻	-11.8509
樹	-11.8509
欧	-11.8509
射	-11.8509
函	-11.8509
雄	-11.8509
討	-11.8509
負	-11.9846
婦	-11.9894
緒	-11.9932
必	-11.9933
政	-11.9934
岡	-11.9934
由	-11.9935
担	-11.9935
鑑	-11.9935
童	-11.9935
裂	-11.9936
膨	-11.9937
釈	-11.9937
謙	-11.9937
束	-11.9937
携	-11.9937
罰	-11.9937
況	-11.9937
摘	-11.9937
淡	-11.9937
兵	-11.9937
究	-11.9937
菊	-11.9937
刀	-11.9937
窪	-11.9937
架	-11.9937
罪	-11.9938
輸	-11.9938
尊	-11.9938
削	-11.9938
隆	-11.9938
到	-11.9938
粗	-11.9938
党	-11.9938
旭	-11.9938
k	-11.9938
漁	-11.9938
隅	-11.9938
芝	-11.9938
雷	-11.9938
環	-11.9938
肺	-11.9938
虹	-11.9938
災	-11.9938
微	-11.9938
潔	-11.9938
獲	-11.9938
幹	-11.9938
漬	-12.1547
悲	-12.1568
趣	-12.1591
令	-12.1595
興	-12.1596
齢	-12.1596
熊	-12.1598
褒	-12.16
随	-12.1601
耐	-12.1601
摩	-12.1602
因	-12.1603
舎	-12.1603
婆	-12.1603
奴	-12.1604
宣	-12.1604
邦	-12.1604
冠	-12.1604
序	-12.1604
爪	-12.1604
噴	-12.1604
及	-12.1604
叫	-12.1604
贈	-12.1604
刑	-12.1604
就	-12.1604
腺	-12.1604
鬼	-12.1604
却	-12.1604
潜	-12.1604
抽	-12.1604
脚	-12.1604
哲	-12.1604
麦	-12.1604
善	-12.1604
粘	-12.1604
菓	-12.1604
孝	-12.1604
羅	-12.1604
述	-12.1604
刷	-12.1604
<	-12.1604
鹿	-12.1604
塞	-12.1604
佐	-12.1604
巣	-12.1604
威	-12.1605
植	-12.3423
偉	-12.3578
般	-12.3601
脇	-12.3602
揚	-12.3602
荘	-12.3603
軟	-12.3603
炒	-12.3604
脊	-12.3604
博	-12.3604
垂	-12.3604
傾	-12.3604
摂	-12.3604
玄	-12.3604
漂	-12.3604
弘	-12.3604
翼	-12.3604
ヂ	-12.3604
被	-12.3604
瓦	-12.3604
忍	-12.3604
/	-12.3604
仁	-12.3604
塔	-12.3604
庁	-12.3604
促	-12.3604
!	-12.3604
欄	-12.3604
沈	-12.3604
x	-12.3604
殴	-12.3604
蹴	-12.3604
康	-12.3604
拡	-12.3604
挿	-12.3604
妥	-12.3604
繁	-12.3604
砲	-12.3604
班	-12.3604
嵐	-12.3604
殻	-12.3604
峠	-12.3604
蘇	-12.3605
阿	-12.3605
俗	-12.3605
獄	-12.3605
粋	-12.3605
懇	-12.3605
互	-12.3605
辻	-12.3605
×	-12.3605
—	-12.3605
既	-12.3605
猛	-12.3605
捕	-12.5872
去	-12.6076
墓	-12.6084
斜	-12.6088
賃	-12.6101
準	-12.6102
標	-12.6103
仙	-12.6103
庫	-12.6103
慢	-12.6104
奨	-12.6104
縄	-12.6104
慮	-12.6104
雅	-12.6104
純	-12.6104
爽	-12.6104
虐	-12.6104
梗	-12.6104
競	-12.6104
仰	-12.6105
滝	-12.6105
偏	-12.6105
蒸	-12.9007
帽	-12.9422
浩	-12.9432
荷	-12.9434
詳	-12.9435
徴	-12.9436
韓	-12.9436
漫	-12.9437
辰	-12.9437
酷	-12.9437
奈	-12.9437
希	-12.9437
帝	-12.9438
訓	-12.9438
荻	-12.9438
淳	-12.9438
宇	-12.9438
岳	-12.9438
尋	-12.9438
敬	-12.9438
与	-13.4336
黄	-13.4433
律	-13.4437
険	-13.4437
憶	-13.4437
功	-13.4437
宙	-13.4438
敗	-13.4438
喫	-13.4438
躍	-13.4439
需	-14.4169
酵	-14.417
郭	-14.4171
讃	-14.4172
菅	-14.4173
縛	-14.4174
筑	-14.4175
疽	-14.4176
珠	-14.4177
獅	-14.4178
曽	-14.4179
挑	-14.418
把	-14.4181
扁	-14.4182
循	-14.4183
帷	-14.4184
媒	-14.4185
貞	-14.4186
諦	-14.4187
衆	-14.4188
紋	-14.4189
祉	-14.419
矯	-14.4191
癒	-14.4192
痢	-14.4193
泰	-14.4194
懲	-14.4195
弧	-14.4196
幽	-14.4197
寅	-14.4198
嘩	-14.4199
喧	-14.42
伎	-14.4201
践	-14.4202
裸	-14.4203
蛍	-14.4204
舗	-14.4205
脅	-14.4206
綱	-14.4207
琢	-14.4208
灰	-14.4209
椅	-14.421
曇	-14.4211
昇	-14.4212
揮	-14.4213
憲	-14.4214
寧	-14.4215
宸	-14.4216
嬉	-14.4217
雀	-14.4218
陣	-14.4219
臼	-14.422
脈	-14.4221
肪	-14.4222
翌	-14.4223
熟	-14.4224
柴	-14.4225
擬	-14.4226
括	-14.4227
抹	-14.4228
抑	-14.4229
徐	-14.423
匠	-14.4231
凡	-14.4232
鎌	-14.4233
赴	-14.4234
詠	-14.4235
訂	-14.4236
苑	-14.4237
疎	-14.4238
滋	-14.4239
控	-14.424
挟	-14.4241
廊	-14.4242
巳	-14.4243
尿	-14.4244
創	-14.4245
剖	-14.4246
催	-14.4247
侵	-14.4248
酎	-14.4249
苗	-14.425
犯	-14.4251
渉	-14.4252
掲	-14.4253
扇	-14.4254
庄	-14.4255
娩	-14.4256
鍛	-14.4257
鉛	-14.4258
貿	-14.4259
衛	-14.426
融	-14.4261
糸	-14.4262
笹	-14.4263
湘	-14.4264
戒	-14.4265
憩	-14.4266
埼	-14.4267
衝	-14.4268
棲	-14.4269
披	-14.427
忠	-14.4271
娠	-14.4272
契	-14.4273
垢	-14.4274
唯	-14.4275
鏑	-14.4276
銭	-14.4277
薦	-14.4278
繊	-14.4279
烈	-14.428
慌	-14.4281
委	-14.4282
匂	-14.4283
伺	-14.4284
襲	-14.4285
肢	-14.4286
繰	-14.4287
筒	-14.4288
患	-14.4289
須	-14.429
袖	-14.4291
療	-14.4292
燥	-14.4293
旬	-14.4294
彙	-14.4295
秀	-14.4296
招	-14.4297
冗	-14.4298
偶	-14.4299
v	-14.43
膚	-14.4301
挨	-14.4302
拶	-14.4303
惜	-14.4304
悟	-14.4305
妊	-14.4306
蒲	-14.4307
汽	-14.4308
召	-14.4309
剣	-14.431
乏	-14.4311
礎	-14.4312
督	-14.4313
潟	-14.4314
抵	-14.4315
否	-14.4316
停	-14.4317
避	-14.4318
貯	-14.4319
責	-14.432
更	-14.4321
審	-14.4322
監	-14.4323
戚	-14.4324
充	-14.4325
渓	-14.4326
殊	-14.4327
梨	-14.4328
宴	-14.4329
央	-14.433
魅	-14.4331
航	-14.4332
晴	-14.4333
己	-14.4334
ゾ	-14.4335
絞	-14.4336
揺	-14.4337
震	-14.4338
符	-14.4339
稿	-14.434
浄	-14.4341
徹	-14.4342
尽	-14.4343
寂	-14.4344
嬢	-14.4345
含	-14.4346
較	-14.4347
稚	-14.4348
看	-14.4349
濯	-14.435
埋	-14.4351
驚	-14.4352
請	-14.4353
粧	-14.4354
捨	-14.4355
滞	-14.4355
朗	-14.4356
択	-14.4357
咲	-14.4358
履	-14.4359
刻	-14.436
範	-14.4361
往	-14.4362
企	-14.4363
設	-14.4364
獣	-14.4365
距	-14.4366
f	-14.4367
飽	-14.4368
郵	-14.4369
僚	-14.437
示	-14.4371
求	-14.4372
析	-14.4373
伸	-14.4374
診	-14.4375
懐	-14.4376
l	-14.4377
勧	-14.4378
械	-14.4379
景	-14.438
酔	-14.4381
誌	-14.4382
ゥ	-14.4383
護	-14.4384
績	-14.4385
誕	-14.4386
裕	-14.4387
緊	-14.4388
掃	-14.4389
響	-14.439
瞬	-14.4391
導	-14.4392
魔	-14.4393
珍	-14.4394
募	-14.4395
阜	-14.4396
午	-14.4397
価	-14.4398
史	-14.4399
湾	-14.44
岐	-14.4401
雰	-14.4402
供	-14.4403
紹	-14.4404
恥	-14.4405
懸	-14.4406
描	-14.4407
除	-14.4408
詞	-14.4409
識	-14.441
査	-14.4411
詰	-14.4412
介	-14.4413
沖	-14.4414
双	-14.4414
泣	-14.4415
輩	-14.4416
借	-14.4417
押	-14.4418
阪	-14.4419
術	-14.442
越	-14.4421
疲	-14.4422
忙	-14.4423
払	-14.4424
妙	-14.4425
m	-14.4426
途	-14.4427
ォ	-14.4428
頑	-14.4429
批	-14.4429
験	-14.443
昨	-14.4431
勉	-14.4432
忘	-14.4433
普	-14.4434
曜	-14.4434
昭	-14.4434
努	-14.4434
ェ	-14.4435
考	-14.4436
将	-14.4436
穏	-14.4436
授	-14.4436
邪	-14.4437
ョ	-14.4437
翻	-14.4437
索	-14.4437
升	-14.4437
奮	-14.4438
唐	-14.4438
ャ	-14.4438
幌	-14.4438
